#version: 0.2
Ġ t
i n
e r
Ġ a
o n
h e
e s
Ġ s
o r
a n
Ġt he
e d
e n
a r
i t
a t
Ġ f
Ġ o
Ġ c
in g
a l
Ġ w
r e
Ġ p
Ġt o
Ġ b
i s
Ġ in
i c
r o
a s
Ġo f
Ġ S
Ġ m
a y
i l
n d
Ġ h
i on
t er
Ġ d
l e
Ġ A
o u
Ġ T
Ġ C
i d
o m
s t
en t
Ġa nd
Ġ M
Ġ on
e t
e l
a c
u r
Ġt h
e c
Ġ I
Ġ P
a d
Ġf or
Ġ B
Ġ n
Ġ l
i g
a m
o l
o t
i r
Ġ re
Ġ g
u t
Ġ e
er s
Ġ -
Ġ W
Ġ #
d ay
u s
3 9
Ġ N
v e
Ġ F
Ġ R
il l
Ġs t
Ġ r
o w
Ġ (
es t
Ġ it
i m
Ġ D
t h
v er
Ġ U
r a
at ion
Ġ G
u n
Ġ H
l y
Ġ L
q u
t s
c h
u p
it h
Ġ E
e w
e ar
Ġa n
Ġ O
Ġa t
c e
a k
o s
ig h
Ġb e
u l
Ġa s
an d
Ġth at
Ġw ith
a g
r i
e m
l d
ter s
o p
ĠT he
es s
Ġc om
Ġp ro
a in
Ġ 1
Ġ is
Ġ y
Ġ J
o c
Ġs a
k s
Ġc on
Ġit s
ĠI n
' s
a p
c t
al l
i an
Ġ 2
Ġ he
0 0
Ġd e
Ġ v
at e
u ters
as t
Ġsa id
u m
Ġb y
f t
ĠS t
o st
or e
i es
i a
ou r
en d
Ġh as
p or
Ġ le
ro m
e e
Ġs h
Ġ qu
Ġw h
Ġe x
Ġp l
igh t
Ġ K
u st
Ġc h
o o
e uters
Ġcom p
u nd
ac k
Ġf rom
is t
m ent
i v
it y
ar d
ar t
Ġa g
i al
p p
i f
Ġp r
ou n
Ġof f
f ter
. .
es day
in e
ĠC h
u g
i ve
u d
Ġh is
el l
Ġw as
Ġw ill
Ġ k
t ed
a ve
Ġa l
r y
ĠT h
a b
l t
g t
Ġn ew
or d
Ġs p
Ġa fter
o b
ic e
Ġ Y
i p
R euters
o ft
Ġo ver
m er
er e
Ġ j
Ġf ir
Ġs e
Ġw or
ar g
ion s
f f
ou ld
ac e
s e
Ġ V
ar e
an s
i e
ĠF r
ĠU S
on g
u b
Ġ up
ay s
n ing
\ $
Ġh ave
Ġc l
ic k
ol d
an y
u c
Ġy ear
ter n
w o
ou t
Ġa re
Ġthe ir
u e
Ġo ut
g e
am e
Ġa c
om e
Ġ \$
Ġ ro
Ġqu ot
ill ion
a il
Ġ un
k e
Ġs ec
ĠP r
id e
o ver
ig n
an t
id ent
re e
ro s
il e
A P
ar k
e x
im e
on d
i re
Ġex p
o d
e p
Ġin t
ra q
Ġa b
or s
o g
ak e
Ġfir st
en s
ow n
ĠM on
a v
ĠU n
is h
as s
Ġt wo
ic h
am p
Ġr es
ag e
ic es
ĠI raq
as e
ur s
ation s
ee k
por t
on e
O N
Ġ2 00
b er
c om
Ġ- -
Ġo p
ol l
ro w
at es
ĠN ew
u re
Ġag ain
Ġp er
ro p
ĠA P
ar y
Ġm ore
he n
ec t
th er
ac t
es ident
id ay
Ġb ut
Ġcon t
Ġs c
Ġle ad
Ġ 3
et s
Ġf in
ac h
Ġre c
ed n
ĠMon day
er v
ot e
edn esday
u esday
Ġt e
an ce
r it
.. .
h n
he d
Ġw in
ĠW ednesday
o v
ĠT uesday
urs day
Ġ en
or y
i z
m p
Ġt r
an k
ĠIn c
ĠTh ursday
le ct
Ġcomp any
an c
it e
Ġth is
is s
Ġa d
a w
Ġn ot
en ce
ul l
ad e
at ed
Ġd is
ĠFr iday
ar ter
ation al
ou s
ic t
oun t
v est
oo d
Ġon e
ĠS h
e op
it ed
oc k
ear ch
as h
Ġagain st
ic ros
or k
or t
; /
Ġth an
Ġa pp
et w
eop le
Ġint o
O R
es ter
ic an
ur n
Ġ us
o in
g h
as on
Ġw eek
Ġl ast
ou nd
o y
Ġac c
ester day
us h
Ġwh o
or m
ĠA n
v en
Ġy esterday
icros oft
Ġab out
Ġin c
Ġa r
Ġpl ay
al s
ĠC or
Ġc r
ĠI nd
h er
e b
m an
ĠS p
ro up
Ġw ere
i b
Ġthe y
ĠC om
Ġan n
Ġoff ic
Ġal l
l and
over n
Ġat t
w are
in a
os s
Ġbe en
ex t
Ġe ar
ĠI s
p l
ĠIn tern
Ġ &
Ġ im
it ion
e y
Ġwor ld
re at
Ġ or
v el
oc ks
it s
Ġ 4
Ġm an
ic al
y st
Ġh igh
Ġm illion
u ct
an g
l l
t on
Ġh ad
e at
Ġst r
ir d
Ġm ark
Ġk ill
c ed
er al
ĠA s
Ġth ree
in d
ĠCor p
overn ment
A N
on th
r al
t le
ĠL e
Ġre t
Q u
Ġb l
oo k
os e
ow er
as ed
c ent
Ġ 6
is e
he s
il it
us s
t ing
ĠP ro
g r
ĠS und
ec ted
l ine
ur ity
ĠA mer
Ġoffic ial
A S
ĠSund ay
ĠR e
in es
Ġw ar
Ġd ec
u rop
Ġte am
Ġw ould
o k
urop e
Ġ end
Ġb ack
a z
at ing
Ġo il
ĠUn ited
i x
Ġc ould
o ve
ol og
ab le
Ġs erv
ĠS at
Ġann oun
Ġde f
Ġs l
Ġf our
el y
Ġsec ond
F P
por ts
Ġb u
Ġg overnment
Ġs et
Ġf l
p h
ug h
o x
ic s
Ġp ol
Ġyear s
Ġwh ich
ĠE x
on s
Ġm ak
oft ware
al es
Ġcon s
ĠE n
in ess
I N
ent s
Ġs up
ĠN E
ĠR euters
ĠE urope
Ġm onth
Ġp eople
Ġto day
us iness
Ġc o
r on
Ġ Ġ
ĠM icrosoft
Ġin d
Ġpl an
w w
ow s
or ld
in is
Ġe lect
ĠPr esident
ub l
Ġd es
t t
p r
Ġpr ices
a ir
ec hn
ĠA r
Ġse ason
Ġper cent
Ġ 5
Ġw hen
ĠNE W
a h
it al
h ip
in s
Ġd own
i er
Ġn ext
en c
Ġs ays
Ġqu arter
Ġp art
Ġm e
Ġp re
u ch
ur day
e f
al ly
Ġs ur
Ġt ime
l es
yst em
Ġg o
l p
ĠSat urday
em ent
at ch
Ġn ight
Ġwor k
ing s
Ġre g
ĠI t
ap an
Ġc ount
Ġg ame
ie f
Ġ 7
Ġl i
il d
Ġin vest
Ġp h
ec ut
ĠC o
Ġpro d
a j
Ġth ird
b all
U S
a un
ĠB l
is ts
on om
g ed
OR K
ĠB rit
Ġb ec
inis ter
ur ing
ĠY ORK
echn olog
Ġmark et
Ġrec ord
Ġc ap
und er
Ġm ay
p t
Ġn e
Ġv ict
e al
or n
Ġs oftware
r an
f orm
c ess
om b
m s
Ġm ilit
i ed
ou gh
Ġpro f
ust ral
ul t
Ġc an
is ion
er r
Ġhe lp
ra el
Ġ1 0
= "
ĠA f
ar s
am es
ĠF or
ĠP l
ĠW orld
ĠO n
g er
o ot
ĠIntern et
Ġre le
Ġop en
Ġ200 4
our t
l ess
n er
Ġannoun ced
el s
n ed
Ġb usiness
u ter
le ar
el d
ĠA l
Ġ ec
Ġcon f
ap p
ĠJ apan
por ted
us e
Ġg roup
Ġag re
ĠA ir
00 0
Ġs ome
Ġr un
Ġde al
Ġb ig
Ġl arg
ĠR es
ur r
Qu ote
Ġb illion
Ġd o
at h
ou th
Ġto p
on es
and s
ro ugh
ist an
b le
Ġc all
l ed
ic a
Ġsec urity
r ac
ĠCh ina
Ġt ake
Ġm ed
Ġm ost
ar es
i o
ĠC on
ĠC l
in u
ee p
y ear
i ous
e en
Ġpr esident
Ġs o
ĠJ o
Ġin s
Ġs ay
Ġc ar
Ġt arg
c es
Ġa m
Ġt al
Ġec onom
R E
echnolog y
ag ue
Ġst art
in ce
ĠA ustral
er t
Ġn ear
ĠP al
ĠR uss
Ġo ther
w ard
Ġin ter
ĠS ec
Ġg row
Ġvict ory
i am
Ġre m
Ġkill ed
Ġa ir
Ġd ay
Ġt ri
Ġ under
Ġcom m
a im
g le
ac ks
on y
iv es
Ġofficial s
Ġs ign
ĠB ush
aj or
ĠF l
i eld
ro und
u al
Ġre ported
ur es
ri v
Ġb o
Ġs ales
c o
amp ions
S t
v ent
ep t
an ad
E R
etw ork
an ts
Ġw e
ĠA t
ot her
or th
ĠIs rael
ĠEurope an
l ud
Ġl aun
r ug
ly mp
IN G
ĠC up
Ġhe ad
Ġoff er
ĠO p
Ġc ut
in ian
i ent
vel op
Ġ "
Ġpl ans
Ġop er
al if
ning s
o ol
Ġcount ry
ro v
ĠN o
Ġtarg et
Ġj ust
ĠP h
it ies
Ġpro v
l ing
ĠM ar
f ore
ĠCom m
Ġg et
w ay
op s
Ġ1 9
Ġbe fore
B M
Ġh ome
Ġd em
Ġbu y
Ġman ag
us p
ĠO lymp
g y
g an
enc y
est inian
ed eral
us ic
ĠR ed
Ġl aw
g est
ĠS er
c k
i um
ĠAmer ican
Ġ 8
Ġsh ow
oo gle
Ġs er
em ber
Ġim p
Ġas s
ĠSt ates
c er
ord ing
iss ion
n s
ĠA d
Ġb ro
D A
ĠM inister
an ge
Ġch arg
s u
a x
ĠJo hn
Ġn o
Ġt ak
in k
; ...
Ġl ong
Ġre port
Ġj ob
;... &
Ġs ystem
A FP
Ġa ct
ĠY ork
ur y
he ad
Ġnew s
Ġfor mer
" &
ian t
Ġt ra
ing ton
ob ile
t o
Ġh ost
ick er
Ġfin al
T ON
Ġk n
Ġb id
Ġy ou
an ies
Ġt ro
ĠEn g
Ġs u
Ġb r
m ed
Ġinc lud
Ġw on
a i
Ġ Z
ther n
re ak
Ġre l
at a
ec h
A R
. ,
um p
Ġb ank
Ġle ast
A L
es e
Ġt echnology
ĠBrit ish
Ġf ive
etw een
i pp
ra w
Ġm ade
en n
ul ar
a use
f o
Ġp oin
ĠA pp
Ġh im
Ġp ost
Ġm ajor
Ġind ust
ĠPal estinian
en se
ubl ic
end ing
Ġh it
Ġm ake
Ġde velop
c hed
ĠPro f
Ġh er
Ġb omb
Ġmak er
Ġb etween
ad y
Ġ 9
Ġs w
i k
Ġex ecut
Ġs m
Ġch ief
Ġl at
er m
Ġe ff
oll ar
Ġlarg est
Ġinc re
err or
Ġthe m
Ġd uring
ear s
i ew
Ġpro gr
Ġdis c
is ing
Ġcomp anies
Ġprof it
is ed
Ġtal ks
ard s
Ġ if
/ /
ĠW ith
Ġre b
Ġcl aim
ĠIraq i
le y
ou se
6 6
ĠInd ia
: //
tt p
Ġth rough
re w
ĠW eb
Ġacc ording
Ġwh at
ot s
h ttp
Ġt est
f ul
Ġh op
Ġp ay
f er
Ġex t
Ġad d
ĠCom p
Ġg l
ĠC ol
Ġserv ice
ain s
re m
ĠO ct
Ġb at
Ġr a
al e
g in
Ġan other
ee ks
er ed
E N
ire less
iv ers
ĠS c
Ġs usp
Ġn ow
Ġo w
ĠC anad
Ġco ach
al f
ag es
Ġl oss
Ġlead er
uc lear
ĠO ff
I S
ww w
t y
Ġexp ected
r act
Ġin tern
r up
Ġa ut
uct ion
ĠLe ague
ĠS outh
Ġs ix
Ġg iant
Ġf il
a f
ut ion
ow ing
Ġst ri
ĠU p
Ġs earch
Ġin j
il ity
Ġme et
en eral
Ġexp l
ĠT r
us ed
ec ts
ic ations
ĠA FP
Ġte le
ĠD e
Ġprod uc
Ġle ft
Ġp e
if e
Ġ2 0
in fo
I n
t icker
er ry
re uters
RE F
ĠH REF
ak istan
ĠS ept
Ġst ate
Ġatt ack
' t
ĠOp en
Ġc ost
ur ed
e ed
Ġp ower
s on
ash ington
Ġw ay
Ġth reat
Ġs ub
ĠB e
Ġs ince
re t
Ġd el
ĠW h
p os
Ġp ass
Ġg u
b ack
Ġc ourt
5 0
Ġm iss
Ġin f
ĠS e
Ġst ill
ver y
Ġm ove
ad ing
Ġpro t
Ġr iv
Ġwh ile
b ers
Ġindust ry
Ġm ov
igh ts
Ġear ly
Ġc amp
Ġs ell
gh an
Ġpol ice
Ġbe ing
Ġstr ong
m b
Ġan t
Ġf ound
ĠA g
ment s
Ġa mp
st r
u el
Ġ1 1
as p
C h
ar m
Ġ X
vest or
Ġp ut
d own
ĠIntern ational
m in
ĠPr ime
Ġret urn
Ġde ad
Ġan y
Ġsh are
ĠA ra
ĠAs s
o ff
Ġm usic
is m
Ġde b
Ġprogr am
n e
ĠO il
ĠG roup
t el
E L
r ess
rac le
ri es
is on
Ġagre ed
b e
Ġ '
ob al
d ate
i ol
ĠU N
p ar
Ġmilit ary
Ġc ent
rup t
az a
C O
ĠG oogle
N ew
ĠA fter
ĠK ore
en ch
Ġl ook
ĠS ox
Ġmonth s
at ors
ĠN orth
ĠB ank
at or
Ġc ol
Ġelect ion
ING TON
Ġd ays
Ġr ul
ĠCh ampions
o on
y s
u k
A T
v es
c hes
Ġ i
f ull
st ocks
id n
F ull
Ġn uclear
qu ick
if ic
Ġgrow th
Ġcomp uter
Ġ ...
ĠW ind
Ġp ar
our ce
qu ote
ib le
in vestor
= /
ros s
asp x
full quote
Full Quote
quick info
ĠA b
i ver
Ġon ly
oc i
ĠP C
Ġe ven
Ġbec ause
Ġcl os
AS H
Ġt error
re et
is es
ĠM an
ĠB r
Ġs old
Ġm in
ĠH e
Ġ1 2
Ġd rug
Ġr est
ers on
ĠW ill
t ain
ĠD av
ot h
ĠG re
ip s
ur g
oot ball
ire ct
ĠOlymp ic
p ut
ĠA T
urr ican
Ġn um
Ġm obile
ĠAf ghan
T he
s p
Ġh old
Ġon line
or ed
ĠSt ate
r est
i ers
id er
ust om
Ġro und
ĠC ar
ĠC alif
in t
ĠAustral ia
ASH INGTON
m y
Ġle g
Ġinclud ing
ĠA nd
Ġst ud
Ġph one
p ite
ĠWind ows
ĠB y
O S
S oft
Ġbe at
Ġf oll
Ġserv ices
Ġb el
ĠW ASHINGTON
Ġres earch
ud e
ĠAf r
Ġth ere
ĠEng land
le g
r ed
Ġf all
le t
ĠB ag
Ġre v
am il
at ive
h d
Ġsp ec
ch ool
Ġag o
ĠP akistan
Ġsh ould
ĠW ar
Ġplay ers
c l
ra ft
n ers
Ġhigh er
M icrosoft
Ġcons um
en ter
at er
Ġj oin
ĠO r
ĠB ut
ĠF all
Ġear nings
Ġh and
Ġsp ace
Ġlat est
Ġk ey
Ġf ace
ĠM ich
he l
uc k
Ġli ke
r es
en e
hd ad
Ġc ity
ĠN ational
E S
Ġrele ased
b ased
Ġad v
eople Soft
Ġpoin ts
Ġret ail
id a
Ġfir m
Ġbig gest
Ġm any
Ġk eep
ide o
Ġn ation
Ġb ar
Ġro se
ĠI BM
ĠW ashington
Ġm em
ĠW est
Ġf ight
Ġst ock
A G
or es
Ġf ut
ĠS an
Ġd ata
ĠG aza
Ġsh ares
ost on
Ġcomp et
im es
Ġm uch
Ġne ed
Ġt urn
qu arter
Ġt it
Ġg ames
ot t
it ing
Ġp ublic
Ġac qu
ĠBag hdad
l in
ĠIsrael i
Ġv iol
i ke
Ġf ree
iz e
Ġf ell
Ġre f
ĠN etwork
Ġ200 5
Ġd ou
ud an
i or
ĠA ug
Ġtro ops
Ġrec ent
d er
ian s
B A
inu x
3 6
ĠRes earch
Ġc he
Ġpe ace
Ġst ocks
; &
ĠT e
p ly
Ġc ustom
ON D
Ġv ers
Ġg old
ut s
ĠD ec
1 0
a ul
end ed
anc ial
Ġus ers
Ġf ail
ĠS up
ĠI ran
ĠB o
Ġhe ld
Ġp ast
Ġv is
Ġa v
os ition
at s
ood s
s o
Ġs uc
Ġw om
Ġfour th
en g
Ġintern ational
Ġpol it
ĠA ll
a ign
ĠM c
ĠNew s
OND ON
ĠRuss ian
A M
ĠApp le
ig ital
ĠD ar
h or
ist r
Ġa head
Ġcont ract
ĠB oston
ĠL ONDON
Ġreg ion
Ġl ine
iv ing
iz ed
U p
Ġcont inu
Ġf ac
Ġde v
AS A
re l
el t
Ġdem and
Ġ ord
ĠAmer ica
Ġd irect
Ġtr ade
Ġrele ase
Ġlaun ch
Ġwh ere
ro l
Ġlead ers
ri b
Ġpr ice
Ġc or
Ġeconom y
p e
Ġh om
ĠG u
ĠE ar
Ġen g
ĠĠ Ġ
m ail
Ġexecut ive
as es
l oy
is co
ig er
ĠPr ess
Ġw eeks
ĠS un
ĠB ar
Ġst and
Ġr ed
op p
one y
ĠO racle
Ġh alf
ĠRuss ia
Ġfor ces
ĠL inux
Ġp oss
ĠT o
Ġh ow
Ġpro cess
Ġsup port
Ġre ports
Ġb an
Ġg r
ob er
ak er
Ġ1 5
Ġ1 8
Ġ Q
ĠS w
f ur
Ġpresident ial
Ġf ederal
Ġus e
S ports
Ġcon cer
Ġpr ess
j ect
ĠSt reet
ĠN ov
Ġeconom ic
E O
Ġen ter
ĠAss oci
it ch
h am
ĠF in
E C
er ve
end s
Ġb et
Ġbo ost
Ġ Qu
e es
Ġfor m
ient ists
e or
f at
ĠB u
Ġm ain
Ġh ist
s h
Ġto ok
l o
urrican e
h old
Ġe mp
ĠG r
ĠM ay
Ġr ight
ĠSec urity
or ida
id ed
as k
Ġl ow
el f
Ġst ra
Ġl ower
Ġe v
ul ts
Ġriv al
Ġnum ber
Ġd ollar
Ġtit le
l im
Ġo pp
Ġy our
ĠInd ian
ĠFr ench
Ġinvest ig
Ġt ry
at ic
Ġnear ly
ri z
y ing
ĠA c
ĠUn ion
Ġde ath
Ġm en
Ġjob s
Ġh ard
Ġcall ed
Ġre ce
ve il
ĠO ut
ough t
ĠM ot
Ġinvest ors
ĠE d
l ines
ĠD is
ke y
Ġser ies
al t
n ess
an n
Ġinter est
pp ed
Ġse ven
Ġus ed
B C
Up date
ĠS udan
Ġfin d
ĠPh il
ĠW all
Ġa im
I T
ĠS erv
ĠKore a
ĠC r
ĠH igh
ĠM in
id es
ĠP eopleSoft
ill s
un ications
ĠIt al
Ġse ver
ĠD ep
Ġcl ose
Ġa round
Ġin v
Ġbu ild
T O
an ke
Ġf und
ĠOn e
ad es
ĠIn tel
ar ing
Ġ1 4
I C
a id
Ġd ri
ir ed
or ks
Ġatt acks
Ġp op
a el
ĠC ity
Ġs ent
g ing
ĠE lect
Ġgl obal
id d
Ġwork ers
ĠD em
m it
am s
Ġcamp aign
ĠAn g
anke es
b r
Ġn etwork
Ġkill ing
Ġl ate
ĠM ark
en ed
ĠS ays
Ġsh ort
c y
Ġc are
ĠSt e
ud ge
ĠP ar
ĠFl orida
Ġl it
ak es
ĠDar fur
Ġqu est
ro d
if f
Ġm ight
u j
1 5
ĠSept ember
er gy
ĠU K
Ġs chool
Ġd et
id ence
p er
Ġc a
ab or
Ġsm all
ĠG ame
Ġsuc cess
at t
ad r
ĠOct ober
Ġm od
un g
Ġ1 3
Ġdes pite
Ġc ase
Ġ3 0
ĠAustral ian
in als
Ġ1 6
Ġv ideo
t op
Ġpro m
art ment
av ing
ou thern
Ġbro ad
ĠS l
ĠK erry
Ġlead ing
i j
Ġvers ion
Ġp at
Ġch amp
ign ed
ĠN ot
ĠO ver
Ġ1 7
ĠComm ission
Ġrem ain
or thern
ens ive
ĠF ederal
Ġagre ement
Ġal so
a it
am ed
Ġfoll owing
g et
k er
it t
it es
um an
ĠR ep
Ġan al
anc es
Ġd om
ĠPl ay
b y
Ġt ax
Ġh ol
ĠS y
Ġar rest
en er
Ġb est
ĠJapan ese
Ġtr ans
et h
ug g
Ġst ar
is hed
Ġapp l
Ġn ational
Ġr ise
Ġg ood
u ce
Ġ ed
Ġpro pos
Ġproduc ts
ĠT V
ĠI v
Ġst e
Ġcap ital
orn ia
Ġb reak
s c
v ed
Ġs he
ĠC ourt
Ġfor e
ystem s
Ġf ootball
u ro
w ays
l er
O L
Ġcon d
t ime
ĠG eor
ĠR ec
ess ion
ĠB ra
Ġe as
ut e
ĠT wo
or ts
Ġw he
Ġb oth
m ber
ro ve
Ġf amil
Ġreg ul
im b
Ġbe gin
Ġc re
ap e
Ġa way
ow ed
ĠG l
Ġcustom ers
Ġli k
Ġc urr
ad s
Ġg ive
ĠD ef
as ter
Ġs ol
ove mber
Ġto uch
Ġin st
ĠD es
Ġst ep
) ,
o le
Ġp erson
Ġm inister
Ġw ell
Ġout s
Ġdec ision
ĠP ol
Ġ :
oc r
T h
ĠAra fat
Ġw ireless
n ey
Ġfor ec
oo ks
Ġm ar
ase ball
Ġbat tle
Ġmeet ing
Ġr ace
Ġfut ure
r en
Ġh ere
Ġs uch
Ġcharg es
um b
Ġplay er
ĠS AN
ĠF ir
th ers
ĠFr ance
Ġfin ancial
Ġmanag er
Ġd ue
Ġpolit ical
ĠA m
Ġres p
Ġapp rov
ĠCanad ian
er man
on t
Ġe qu
ian ts
Ġc rit
Ġm atch
ĠH am
Ġd igital
ĠY ankees
ivers ity
Ġemp loy
Ġfore ign
Ġ ur
u f
Ġchamp ion
Ġeng ine
ĠE U
R AN
T A
ĠN ovember
Ġexp er
in al
Ġp ull
Ġsc ored
Ġbe h
ĠC EO
ur t
row s
g o
ĠT est
ĠCalif ornia
Ġto ld
ens ion
Ġd iv
Ġe mb
ines e
ĠBrit ain
m ing
ag o
M S
er n
ĠMich ael
o f
hen s
Ġres ults
ac y
Ġl ife
Ġpro ble
Ġl oc
Ġc ell
pr ise
ĠProf it
ĠWill iam
I s
T E
or ning
our s
air man
o id
Ġm er
l am
Ġl ist
Ġre ven
er ing
ĠProf ile
Ġwhe ther
e g
Ġun veil
form ation
Ġcost s
st on
ap s
P od
ad io
ĠSh ar
ĠSh ares
r ic
en al
Ġo b
Ġis su
ĠW in
Ġch ip
Ġset tle
al k
ĠT ex
Ġe very
Ġaut hor
i ft
Ġf ew
Ġtri al
Ġsever al
Ġ Quote
ĠT O
v iew
es tern
ĠB ig
Ġ est
an a
ent ial
Ġwith out
od y
Ġs ite
m ost
Ġper form
Ġsay ing
ĠN ASA
Ġstra ight
Ġlit tle
ĠM ore
Ġbec ome
Ġ1 00
Ġch ampions
ĠE l
Ġelect ions
min istr
ĠChampions hip
row n
f or
et t
Ġac ross
etw orks
ĠP at
ĠP ost
er a
idn app
Ġexp ect
Ġmak ing
Ġlaun ched
ĠM us
ĠSer ies
Ġbank rupt
Ġtr ad
Ġop t
I L
ret ary
Ġe ight
Ġmed ia
Ġbet ter
k top
ĠS ch
os p
Ġro ck
erm any
al th
Ġ 0
Ġ2 5
Ġdo es
Ġwin ning
Ġpol ic
ĠM ed
ĠP e
Ġag ency
ĠAug ust
ĠG eneral
ick et
ĠCon t
I D
Ġre ach
Ġne g
Ġpl ace
ĠV ir
Ġstri ke
F L
a ff
Ġincre ase
is k
S p
Ġg reat
ch ange
ĠComp uter
Ġtele v
l ook
Ġweek end
I BM
Ġs k
Ġow n
r ist
ar ed
Ġquarter ly
av y
ah oo
ĠCanad a
ĠI T
an e
ĠM a
\ \
u es
ĠN et
ĠS ing
Ġl ost
ak ers
Ġwom en
t he
Ġf ire
i et
Ġw ound
ect ion
Ġrun ning
I A
Ġhist ory
es c
Ġanal yst
le x
ap er
v ers
ĠAfghan istan
Ġp riv
ĠP er
ĠW ireless
Ġhop es
iv ed
Ġcont rol
Ġus ing
oin t
ĠTex as
Ġch all
od e
Ġlik ely
ac hed
Ġconsum er
as ts
ĠSp ace
at her
ĠS en
Ġc lear
Ġtak ing
Ġhost age
Ġant i
f ield
p ected
ĠCh inese
Ġmanag ement
ic ans
ur ance
Ġ2 4
Ġhe alth
Ġl ess
A C
Ġv ote
Ġbel ie
Ġcom e
ous ands
Ġs ee
Ġst at
Ġwar ned
l ier
Ġf ield
ri p
it z
Ġmem bers
Ġf ans
il es
ĠA tt
ĠDep artment
uf act
S h
Ġp oll
ond on
Ġs ame
ot i
i ence
Ġs en
am ent
Ġch ild
re en
Ġatt em
on a
e v
or ies
ĠIs lam
Ġsh ot
Ġj ump
L E
ad ium
Ġd ist
Ġam ong
l ant
Ġd r
Ġshow ed
Ġi Pod
Ġbar rel
Ġf eat
w e
U N
Ġbo ard
Ġlaw su
Ġconf ir
- -
t d
Ġm orning
Ġas k
Ġs um
gan iz
Ġv ir
Ġl ed
Ġacc used
Ġpost ed
Ġtouch down
ĠWilliam s
u le
Ġto ward
ĠDav id
H E
Ġ ve
Ġs eek
Ġd id
ĠD el
if ied
Ġf ar
et ro
ĠP art
ĠH ol
e le
ĠM ac
Ġoper ating
ĠE ast
ĠTh is
Ġexpl os
us es
Ġp o
ĠJ e
c il
ĠB ay
ic ation
Ġr ates
ĠDem ocr
I nd
Ġ ent
ĠT al
Ġd rop
Ġf ull
O il
ĠG ermany
Ġsh ar
B l
Ġcl ub
Ġbeh ind
le ged
ĠH urricane
ak ing
Ġmed al
ĠCh ief
Ġam id
z il
ĠC ong
Ġ2 1
Ġgo ing
Ġf uel
Ġg as
Ġpr ison
it ive
Ġclaim s
Ġf oc
ic ago
s et
ĠN ations
am b
ol ution
Ġb all
A n
re ady
ĠJ ust
g es
ĠR et
por ate
Ġwin s
ĠL ondon
Ġmilit ants
d raw
Ġr ate
Ġposs ible
ĠT ur
Ġre pl
Ġe mer
Ġviol ence
Ġm id
Ġacc ess
Ġtak es
Ġto o
ĠLe ad
Ġvis it
os ing
ĠW e
ĠUn iversity
qu e
in o
it ions
ĠS earch
ĠB ill
Ġact ion
ĠP aul
am a
ve y
Ġapp ear
at ely
ĠM o
re as
ot a
ĠJ an
y o
ĠG old
ra ud
EN S
in ed
Ġl and
ĠAt hens
b and
Ġin formation
ĠCh ar
Ġact iv
c ast
ĠL ou
ĠM art
Ġs em
ass er
Ġh uman
en ing
al d
Ġw atch
Ġbr ing
Ġinf l
Ġbankrupt cy
ou ston
Ġv ot
Ġch ang
Ġs im
Ġc ame
Ġc ash
ĠF RAN
Ġph ones
Ġ el
Ġtr ading
in c
Ġg ot
ĠAfr ica
Ġal most
and id
ON T
Ġsign ed
Ġbe gan
Ġcr ude
our n
Ġsc ientists
B S
ĠG erman
ĠS m
ĠSt ocks
oun cil
Ġinj ured
ĠC he
Ġv o
Ġdou b
en a
ĠH ow
our ces
ĠF ed
Ġtake over
ministr ation
Ġto ol
r un
ĠFr anc
o es
ĠH ouse
ĠL td
Ġprof its
E x
iv il
Ġpop ular
Ġtelev ision
Ġm ess
Ġd oc
pt ion
Ġhelp ed
ĠFall uj
ra ph
Ġch ange
Ġm ass
Ġle vel
ow l
Ġre al
r ust
ĠCh icago
Ġsold iers
w an
ĠS ony
ĠMus lim
Ġn ine
66 66
Ġcont in
Ġcar ri
A D
Ġen ergy
Ġconf er
Ġp ush
Ġre qu
Ġal leged
or ing
ĠR y
ĠJ ones
Ġsa f
ĠD eal
ĠH ouston
ĠJ u
w ide
Ġo ld
ap ons
Ġsen ior
r ing
ĠH ar
Ġoffer ing
V D
as ing
Ġend ed
ĠS ales
Ġth ose
Ġpr es
Ġd ied
Ġj udge
ĠSec retary
Ġh ot
ĠW hen
Ġint rod
Ġstud y
Ġs ing
ec e
Ġso on
Ġ19 9
Ġm et
Ġcare er
Ġneg oti
U P
an ks
Ġf ur
ic ks
ĠAr s
ur ch
Ġe ver
U R
ron ics
Ġprod uct
re am
Ġear lier
ĠAir ways
Ġun t
ecut ive
v ious
ac es
Ġun it
ĠS u
ĠR ob
ok es
Ġs ource
15 1
Ġf act
and er
Ġprod uction
gy pt
Ġb ill
Ġm oney
H ENS
ĠM er
ĠD own
Ġpart y
Ġn orthern
ĠAt lant
eal th
Ġhe art
Ġal ready
Ġcut s
e ing
ic ide
Ġst orm
ĠG ames
ĠSp ain
ĠAfr ican
Ġs outhern
ac ed
Ġk idnapp
anc hes
Ġopen ing
com m
Ġman ufact
y n
is c
Ġg ain
ut ch
Ġreven ue
Ġannoun ce
Ġy et
ĠInd ones
is is
Ġsu ff
ĠC ub
Ġperson al
Ġp ot
ĠS P
und red
pr ess
Ġcap t
Ġg ets
ver t
Ġsh ut
ĠFRAN C
Ġd raw
et y
ĠAT HENS
Ġt er
Ġp le
as hed
Ġp ubl
Ġm ult
ir on
ĠN ext
Ġse em
Ġeff orts
ur d
Ġle t
ĠOlymp ics
ĠC ons
Ġfor ce
Ġdef ense
ĠOn line
Ġp itch
Ġin it
Ġm ust
Ġperform ance
Y O
y m
il le
S E
en ger
ex pected
ĠAmer icans
IS CO
ĠServ ice
in ing
ĠT ra
Ġcall s
ask et
Ġconfer ence
Ġf re
Ġf ast
Ġm at
Ġsc hed
Ġre j
Ġacc ount
Ġcount ries
Ġg eneral
rem e
ĠAssoci ation
ĠC le
ĠR o
ent ly
Ġconcer ns
ĠFRANC ISCO
B ush
Ġg ave
ut in
Ġw eb
ian ce
Ġcor porate
un t
anc ed
ĠRe al
res h
G oogle
un ity
ri al
ĠBl ack
w ood
Ġs ug
osp ital
ĠA N
un e
Ġwith draw
Ġforec ast
ĠVir gin
ĠA st
Ġgrow ing
ĠLou is
Ġs ale
Ġf e
ĠRes erve
ĠComm unications
r ong
y a
Ġh ours
Ġexp and
ĠS ystems
ĠC H
Ġn et
ok yo
Ġmak es
Ġouts ide
K YO
Ġre ady
oc cer
ĠAng el
Ġrec over
Ġtry ing
Ġcons ider
Ġp ort
ĠI f
Ġcomp uters
Ġto w
Ġmark ets
Ġc ivil
ĠM ars
Ġwith in
ĠH old
Ġy ards
u ally
Ġa id
Ġleg al
ĠTO KYO
) .
ol f
ĠIn ter
N o
Ġst ake
Ġteam s
M art
ĠC ouncil
Ġs n
Ġqu alif
Ġen ough
ĠAn n
Ch ina
I raq
Ġcon v
idd le
m ir
1 4
Ġc andid
ut es
Ġle ague
Ġav ail
Ġre ached
Ġcontin ue
d s
r is
Ġc oll
ĠM iss
end er
Ġaim ed
a q
Ġd en
Ġ2 3
b us
Ġo thers
ay ed
Ġst op
Ġun ion
ical ly
il y
ĠK ill
C anad
ert ain
ĠN FL
St ocks
Is rael
Ġunt il
Ġf ile
Ġw rit
ĠL os
Ġli ft
Ġarrest ed
ĠGeor ge
Ġre ve
Ġsl ow
Ġpre par
ĠAir lines
Ġair line
t or
Ġb en
ron t
Ġwe apons
ĠBra zil
Ġloc al
Ġr ally
Ġdef eat
ish ing
Ġcharg ed
ĠE nd
ra p
anches ter
ul ation
Ġanalyst s
a ult
in ks
Ġc op
Ġbl ock
Ġsystem s
ĠAra b
ĠGr and
u ary
ĠThe y
Ġtak en
Ġreb els
F or
S P
ĠM adr
Ġcompet ition
Ġopp osition
Ġquest ion
1 2
or age
Ġc oun
ri an
iam i
Ġfail ed
ĠAs ia
Ġins urg
Ġauthor ities
F ONT
en ge
Ġeff ort
asket ball
Ġl o
Ġ2 2
if fer
Ġinv ol
a ud
le ge
Ġcontinu ed
al ed
Ġre p
Ġe ach
Ġfur ther
E M
Ġw ants
Ġon ce
ĠG iants
Ġsp okes
Ġstart ing
Ġchampions hip
ĠB ack
oun g
Ġsup pl
C P
ĠT ro
ot o
iv en
Ġdis put
Ġar riv
Ġsup er
ipp ed
Ġretail er
ĠCh rist
ug e
Ġpre vious
Ġe vent
us ing
ĠY asser
Ġsug gest
Ġe uro
Ġpr act
m ar
ĠAg ain
Ġp os
ĠB AG
ĠMadr id
U L
he ld
Ġfil ed
ĠW al
Ġdou ble
ĠB usiness
ĠD VD
com p
Ġfin ally
Ġcent ral
ab ility
Ġf av
Ġoff ice
Ġspec ial
ĠIv an
DA D
ic ip
Ġth ousands
Ġsp ending
ourn al
H DAD
r ight
ter ed
Ġreb el
ail s
Ġinvest ment
Ġdown lo
Ġra ised
ĠItal ian
Ġdom in
R uss
Ġa ff
im s
ĠBAG HDAD
h an
ell ite
ph one
R e
b it
Ġs at
Ġlook ing
ĠS et
ĠT HE
Ġstr ugg
Ġpot ential
c ing
Ġs ide
Ġf resh
Ġh ands
ĠM os
im ate
Ġdes igned
Ġexecut ives
I R
s ue
Ġf ig
ĠC ent
Ġro ll
m ark
t al
ĠT it
Ġ2 7
Ġ200 6
ĠA ut
ad d
Ġg un
Ġquarter back
Ġoper ations
ĠDav is
oll ars
p le
ĠS oftware
ĠAr my
Ġinj ury
ĠM anchester
ord er
Ġse en
ond s
Ġcr isis
Ġfamil y
l iam
n es
ĠN iger
ĠY ahoo
New s
ĠEar th
3 0
k ins
ĠGre en
Ġcr ed
Ġpress ure
Ġdri ve
Ġp ack
liam ent
r ich
Ġpr ed
rov ers
Ġd am
Ġe y
ĠFranc isco
Ġh its
ad ed
ĠFir st
ĠM iami
Ġcom ing
Ġen v
g ers
Ġs ize
Ġc enter
ĠB owl
ĠSt adium
p art
Ġ ,
as ters
ĠM e
ĠPr ices
il leg
Ġg round
ĠF rom
ĠE gypt
ound s
Ġ5 0
Ġm on
ur al
Ġch ips
ok ia
Ġf raud
ĠD on
Ġall ow
Ġr isk
ĠIn vest
undred s
ĠH el
Ġcom b
ank ed
Ġrul ing
. '
Ġw ent
ac ing
Ġr ights
Ġchild ren
l om
he st
Ġg ener
ĠCo ast
Ġtra vel
F T
ĠT op
id ing
Ġg ains
Ġget ting
Ġpolic y
ic ted
ob e
Ġins urance
1 1
Ġd ollars
ĠT ech
ĠFor mer
ic o
Ġtr ack
Ġlarg e
ĠB ro
ĠB el
un es
Ġdes ktop
ĠX P
H L
Ġsp eed
ip ment
th let
Ġsup ply
ac hes
av es
Ġgo al
h ib
P al
m en
DA TE
p ost
ar z
Ġthe n
Ġd on
ec k
ent ion
ĠP rem
t ors
ur ities
ir c
Ġv al
Ġch airman
ĠTh ere
Ġtal k
ag ing
Ġsp am
Ġcharg e
rows er
Ġp il
ĠT or
ag ed
ĠArs enal
ver age
Ġprot est
it or
om an
uc ed
elt a
Ġp ick
por ters
as hes
ĠEx change
ĠWh ite
opp ing
C C
ĠTh at
Ġann ual
Ġstr ate
Ġproble ms
Ġben ef
ĠJ ob
ell s
Ġfight ing
Ġt w
Ġw ant
ce pt
Ġsp ot
ĠM al
Ġne ver
Ġpr ime
F r
m onth
ro ll
ĠP ac
Ġbe g
ab ly
Ġwork ing
ĠBl air
ele br
Ġc anc
Ġst ore
i ber
z e
Ġ illeg
Ġto ur
il t
Ġhol iday
C om
Ġd riv
ĠV i
ang er
Ġ ident
ĠC enter
ur ning
ai wan
ic ial
ĠA M
ri ef
Ġdisc uss
riz e
ĠP ower
ĠN ow
Ġpower ful
ic it
Ġ2 8
Ġprov ide
Ġt reat
ĠP ark
ct ions
all ed
Ġar my
ĠTr ade
Ġinvestig ation
Ġt imes
Ġfir ed
ĠAc c
an ish
ce ed
os ed
Ġv ol
u ff
m e
ar ra
ĠI P
ul a
op er
m aker
y pe
O M
Ġn ame
Ġpoin t
it ness
Ġf ears
ill ing
ĠL aw
I P
g ame
h y
k ra
Ġriv als
Ġrul es
re land
Ġdis app
Ġbusiness es
Ġattem pt
ĠC ap
ill a
pl oy
ĠT om
ĠC ard
Ġsell ing
uk os
ĠT ony
ĠPl an
5 00
P h
e ad
Ġs om
ail ed
Ġplay off
ron ic
ĠP M
Ġpriv ate
ĠAngel es
Ġavail able
ĠT okyo
Ġexpect ations
m iss
if th
N E
Ġhe avy
Ġsur vey
Ġc our
enn is
Ġhop e
Ġst ores
ĠE c
ĠAs ian
I M
ord s
Ġplan ned
Ġwe ak
Ġb aseball
Ġd ro
Ġd iffer
ri a
echnolog ies
ĠW ins
mer c
Ġconsum ers
E U
ĠS he
Ġch ance
ĠPalestinian s
fer ence
ĠM il
ĠH ew
ĠRy der
r uct
in i
Ġrun s
Ġdevelop ment
ĠIslam ic
UP DATE
Ġr adio
over ed
act or
Ġim port
Ġkn own
Ġord er
ĠT our
om ing
ĠEx pl
Ġconfir med
ĠTh ree
Ġdec ided
s w
Ġn amed
ĠD rug
um e
ore ign
Ġwor th
; ,
ĠTal ks
as d
ack ers
oy s
ĠEn ter
O ne
Ġc row
ĠM usic
eat tle
Ġbl ast
Ġfl ight
Ġask ed
asd aq
Ġb ody
ĠK en
ix ed
Ġimp rove
m o
ĠP ay
Ġkn ow
Ġregul ators
ĠP ort
ow ell
Ġab ove
Ġapp eal
W orld
an ium
Ġapprov ed
Ġwar ning
Ġmiss ing
Ġunveil ed
merc ial
U K
e gr
Ġh ouse
ĠF ire
aw i
Ġfoc us
Ġt erm
Ġh ospital
st it
M W
ct ion
Ġ2 6
at ives
op e
Ġto urn
Ġpro be
C ol
Ġm ort
Ġg ra
2 0
c he
Ġse par
h ic
ag u
Ġcurr ent
ĠPar is
u it
ain ed
vent ion
ĠAd v
Ġshare hold
Ġis sue
ill ions
Ġpro b
ĠPro t
M C
ĠS ur
ter m
um ents
Ġsh ows
Ġcont rovers
Ġ4 0
rough t
us hed
Ġv iew
Ġare a
ash mir
Ġcol or
N Y
Ġr ising
ĠEx p
A r
J apan
Ġle ave
Ġsp e
ĠAn t
Ġsu icide
ĠShar on
f l
Ġc elebr
Ġcap tain
in ation
ĠV er
U n
Ġb ird
ĠBu y
T S
v ing
ĠSt ock
Ġacqu is
ĠL aun
AG O
ol ph
Ġcon n
Ġ200 3
ĠDec ember
Ġmer ger
Ġc ard
Ġth ink
iv ely
ition al
Ġdeb t
Ġemploy ees
Ġs qu
Ġl ight
Ġfir ms
ĠMot or
all s
Ġlawsu it
ĠTe am
b eat
if y
Ġad ministration
Ġsusp ected
A ustral
Ġm ag
Ġh app
ĠM or
ĠI reland
ir es
ganiz ation
. "
Ġst ay
ist ry
Ġincre ased
e ase
Ġp osition
ĠSt rip
ilit ies
iron ment
k es
ĠR ock
ĠL a
Ġcomp let
Ġgroup s
Ġlat er
b o
ĠM ike
el ph
Ġg iven
Ġturn ed
ĠCong ress
Ġb ad
Ġl ink
ĠW ork
ĠN BA
se ason
Ġser ver
ĠBo eing
Ġdev ices
p an
ĠF oreign
Ġpro p
and al
Ġnews p
In tel
C BS
c raft
Ġs ites
Ġclaim ed
Ġequ ipment
A pp
B rit
it ors
ĠB omb
Ġg iving
ĠMon t
Ġclos er
nes ota
ock ed
Ġeff ect
Ġdel iver
ĠM ex
Ġoff ers
ip lom
Ġmov ed
n y
Ġl im
Ġro ad
an ted
ĠI ts
ĠR ich
ib ility
etro it
Ġw ater
ĠS o
ĠD ata
Ġal ong
com ing
Ġapp ar
Ġloss es
ĠSte ve
Canad ian
2 00
ing er
ĠS eattle
Ġm ission
ĠC an
ut ing
R ed
b n
t en
ir ing
Ġspokes man
ĠD ay
ĠK ashmir
Ġup gr
Ġapp ro
Ġopen ed
ĠB E
oc key
Ġadd ed
Ġissu es
ĠR od
se a
ĠFalluj ah
Ġtow n
Ġout look
eat her
Ġst ation
Ġro w
ĠJohn son
Ġrece ived
Ġd est
ĠU s
ly wood
Ġun c
y c
ĠT ime
Ġimp rov
Ġur ged
il ty
Ġpart ners
elph ia
H P
Ġfor ward
ir acy
ĠR ise
Ġcom es
Ġpro ject
ĠItal y
Ġcre ate
E D
w est
er ic
Ġd idn
ĠT im
ĠM S
ur ies
eat h
C A
c c
Ġth ough
ĠF ield
Ġsl ight
Ġf ront
ĠM y
ĠMin nesota
Ġdiv ision
ĠSing h
Ġst aff
Ġro le
orn ey
f ord
l ish
y le
Ġb ased
ĠS il
ov a
Ġav oid
Ġp urch
ĠI r
ĠP ri
Ġmilit ant
Ġappl ications
ĠDemocr atic
Ġb rowser
ĠF orm
ĠD utch
lect ion
at ory
ul ed
ĠInd ust
Ġresearch ers
Ġtourn ament
F actor
Ġc ou
ĠAtlant a
N A
ĠI N
Ġcomp l
Ġaut om
k n
w a
ĠT aiwan
Ġwin ter
n ew
ver d
hel sea
Ġw id
Ġpro s
ene z
ĠJan uary
Ġsing le
ĠB ang
Ġp ri
ĠS ome
ass ic
Ġjoin t
A K
om a
ĠM obile
ĠF ootball
ĠD o
Ġcom mercial
ell ing
Ġcar ry
ĠGre ece
ĠCh arg
aj af
Ġdrug s
Ġexper ts
Ġwound ed
id s
on to
ĠD etroit
ĠZ eal
tain ment
ĠW i
Ġst orage
ĠV al
enc es
Ġdist rib
Ġn etworks
ĠJu ly
2 5
ig an
ign s
Ġsign s
str ong
Ġo vers
ĠW oods
Ġqu ick
ward s
Ġterror ism
IC AGO
ĠAst ros
p s
re ad
Ġdec l
arz ai
Ġf ifth
ĠH ait
Ġse x
Ġt ight
ĠCH ICAGO
ĠZeal and
Ġb asketball
ĠSh i
Ġfac es
itt ee
p ro
Ġs ources
ĠM ilit
ill er
ell ig
g age
st ron
Ġme as
Ġmin utes
Ġche ck
ij ing
Ġest im
ĠVirgin ia
G A
b ed
v et
th an
ĠL ong
ag er
Ġab le
Ġplay ed
pl ay
ĠRe port
A mer
Ġw ild
Ġl osing
ĠL abor
e ver
an el
ĠC isco
ĠD ell
ĠH en
ep end
Ġsur v
L AN
Ġre pr
ĠN ear
Ġst reak
Ġrul ed
Ġt on
un k
Ġser ious
Ġev idence
Ġcrit ic
Ġve hic
Ġs outh
ol ina
ĠS ol
ĠP re
ĠR oy
ĠY ou
ĠDe v
Ġinit ial
in n
ĠG o
ĠDis ney
v ille
Ġpropos ed
Ġa ud
at form
Ġm ach
ĠR eb
ĠTe le
ĠMark et
m as
Ġoff ensive
Ġincre asing
A f
Ġc am
ĠB ob
ri ots
iv al
ĠSp r
Ġbl ood
Ġstart ed
Ġacqu ire
ĠM ic
Ġcl in
Ġpros ecut
Ġm om
ĠT w
ĠN ajaf
ĠIn s
Ġal leg
Ġprot ect
Ġfor ced
Ġplay ing
land s
Ġwom an
ed a
ĠTor onto
Ġs an
Ġb oss
ol es
Ġr en
Ġhold ing
s ter
Ġdeb ate
ĠPol ice
Ġaccount ing
i ot
ent al
Ġad vert
Ġbuild ing
Ġrock et
Ġstat ement
. \
A l
ĠB rown
ĠH ealth
ist ic
ond uct
Ġoffic er
Ġ q
Ġl ooks
ĠT echnology
Ġde ep
or row
Ġf ood
ĠD iv
Ġsh oot
Ġwh ose
ud y
ĠY ukos
ĠSup er
Ġf ri
Ġin ning
ad a
ad elphia
Ġn orth
ack ed
ĠBl ue
Ġhom es
Ġh uge
ew art
ang ers
Ġdoes n
Ġseek ing
F A
F i
U T
u z
ĠF our
Ġch o
Ġar t
ĠComp any
Ġsuccess ful
Ġdeb ut
Ġrev iew
f ox
Ġs it
Ġw estern
ĠSp anish
Ġset t
ĠKore an
ir l
ĠR og
l ight
Ġa verage
Ġh undreds
Ġre form
ĠD eb
AL L
Ġthreat ened
Ġgu ard
ĠA L
ĠP it
ĠB er
Ġb us
ĠM ass
a eda
g ent
n et
Ġt y
ĠU kra
Ġ2 9
Ġrej ected
ar i
Ġrem ains
Ġsusp ended
Ġacquis ition
Ġt em
ic on
Ġbec ame
eng th
Ġs occer
Ġc ode
ig hest
Ġle aving
Ġwin ner
I E
h io
Ġo ur
ĠC ount
Ġear th
ĠBe ijing
App le
ĠM asters
Ġbe ating
d og
s elf
ul f
med i
Ġkidnapp ed
O racle
c ome
k o
at i
ass y
Ġpar liament
Ġdro pped
Ġ very
ac ec
ur b
Ġoffer ed
ĠSer ver
Ġdev ice
ĠIndones ia
ĠA lex
Ġcr ash
Ġdisput e
I ran
Ġw itness
ĠT reas
id ers
ans as
Ġcl eric
Ġreturn ed
ĠWar ner
Ġcrow d
Ġrepr es
Ġre ad
Ġre ason
Ġfil m
T unes
am ing
Ġg en
a ugh
h ouse
l arg
Ġh aving
Ġn on
ud d
ĠV o
m a
r anked
ent ure
Ġst age
Ġret ire
Ġchall enge
Ġcarri er
ĠEc onom
acec raft
; -
B ay
ag les
Ġsa ve
Ġag ree
Ġprov ider
ĠPhil ipp
D ollar
S c
Ġsh ip
Ġconf l
Ġmed ical
ipp ing
Ġdirect or
ĠRec ord
; .
y ware
ĠT y
Ġv end
Ġra ise
ĠOff ice
Ġexplos ion
Ġsaf ety
W h
ĠO S
pp ing
Ġcont ent
Ġsc andal
ĠCar olina
ĠPart y
Ġcour se
s erv
s ource
Ġf ly
as tern
ĠPhil adelphia
ĠNext el
Ġcoun ter
ellig ence
i ar
ĠM ajor
ur der
ĠL OS
Ġdec line
Ġinter im
AT O
A s
Ġf ear
Ġd iplom
ĠI D
ĠH all
ger y
ent ed
Ġhost ages
Ġsuppl ies
ĠCard inals
ur er
ri el
og raph
Ġchang es
i est
Ġp ain
Ġm illions
id el
Ġl ic
ĠH is
Ġexp ects
Ġconf idence
Ġdo z
Ġtro ubl
. &
C S
k y
u x
Ġw anted
ĠC ut
ĠF und
Ġfut ures
Ġpropos al
Ġsum mer
ĠAN G
i ents
p oint
Ġ z
ter y
th ough
ĠSt ar
Ġro b
Ġcontinu es
M ac
ĠIn t
a ut
Ġ er
th ing
ap ore
Ġpl ant
ree k
Ġplan e
EL ES
ĠHow ard
al o
Ġto tal
Ġth ought
Ġintern et
lin ed
Ġrecent ly
olph ins
ou d
ĠF ound
Ġcomp le
ĠSup reme
ĠANG ELES
Ġa stron
ĠB eat
Ġpl ed
ific ant
Ġclos ed
Ġs il
Ġb it
Ġb rought
ĠP utin
ĠO ak
op ing
Ġch ain
ail and
Ġen c
, \
S un
Ġk ept
Ġres ult
Ġdef icit
ĠPC s
ĠServ ices
Ġ \
Ġw a
ad o
Ġst ates
ĠD ie
N N
Ġs end
is l
il ing
Ġcl imb
l ad
ĠB en
Ġ3 5
Ġelect ronics
Ġair craft
on str
end o
ĠCent ral
Ġp ace
ĠC helsea
Ġn ations
Ġserv ers
Ġgo es
ĠS ant
ĠD en
ĠG row
Ġend ing
Ġilleg al
c el
or ity
ĠH ost
Ġ esc
Ġb order
ĠT iger
ĠO w
Ġcomm ission
m akers
r ay
Ġs ending
Ġo cc
ĠD elta
ĠG en
os es
rac y
Ġbuy ing
Ġlaw y
Ġshar ply
ĠMex ico
c hen
ar n
Ġm y
ĠA riz
ig ning
Ġr ain
ra g
ĠJ ames
ĠCon ference
Ġstri ker
Ġsettle ment
ar a
ĠSen ate
itz er
in ary
ĠA riel
um m
Ġissu ed
Ġsan ctions
i od
ĠT rop
est ic
ident s
Ġgu ilty
Ġi Tunes
ĠMed ia
ĠAgain st
ĠPri x
enez uel
, "
b ur
ĠI m
un ch
Ġde p
ĠK n
iz on
Ġcons ecutive
Ġbel ow
Ġsched uled
n oon
Ġ .
ĠT imes
Ġar ch
ox x
Ġdes ign
Ġproble m
ĠTur key
aud i
Ġco al
Ġconcer n
ĠGl obal
ĠJe ff
Ġslight ly
1 00
on ed
Ġf un
ic onduct
ĠB R
ow ers
ĠSt ewart
ĠEx t
enc ies
Ġsub s
ĠMich igan
ĠChrist mas
ĠF ord
Ġk ick
Ġcomm it
Ġhim self
h igh
ĠS af
Ġy oung
ĠAg ency
Ġterror ist
ĠHigh er
Ġappl ication
for ce
ĠS ans
Ġth rew
ĠG et
Ġmem ory
ĠMot ors
O O
Ġa ward
Ġw alk
Ġm oon
Ġl abor
ĠN ets
Ġim medi
Ġimport ant
P EC
ĠM icros
ĠU r
eb an
ubl ican
ĠRed s
Ġfeat ures
Ġnewsp aper
ĠSt ores
ĠRep ublic
Ġpo or
Ġc ertain
Ġb as
ĠS ir
ĠH ome
Ġlong er
Ġneed s
Ġ und
en ced
ar ial
Ġc iting
Ġw el
om in
Ġr ange
Ġsa w
ĠCl assic
ĠHol lywood
Ġcop y
N L
h ing
ud get
Ġ3 1
ĠWh ile
ĠFed er
Re port
ĠSpr int
Ġs ports
id ge
ans ion
Ġro om
Ġfin ance
ĠCar l
ĠElect ion
eth ing
Ind ia
he ast
ĠR am
ear ing
Ġbl ow
G H
Ġs ets
Ġh ighest
ĠN or
Ġr ad
Ġdes c
=" #
=" -
ĠSer if
hel vet
Ġvo ters
6666 66
verd ana
helvet ica
C o
c on
Ġthe se
ĠC ase
ĠSec urities
8 0
in et
Ġc over
ĠC amp
ĠM em
Ġr an
Ġpl atform
ĠY ear
Ġup date
Ġwin d
Ġcr im
Ġinfl ation
Ġnegoti ations
ĠNiger ia
Ġa p
ĠW ay
Ġcon c
ĠTh ailand
Ġbroad band
Ġcred it
Ġton ight
E urope
Ġsp acecraft
ĠAb u
ĠDes pite
m ers
ou l
Ġg ives
ĠO K
1 6
Ġ urg
ĠA v
Ġj ournal
Ġsec tor
sc ri
f ect
ag s
Ġse es
ail y
Ġ4 00
Ġ6 0
1 3
Ġc irc
ĠT ake
Ġv ac
ush arra
Ġhost ile
Ġca used
Ġtool s
usharra f
i ation
j ects
ĠO hio
um er
ĠPe ace
Ġfig ures
r ad
or ic
ĠN HL
ĠD od
ang u
ik ely
Ġcandid ate
r ick
ing ular
Ġw at
Ġto ugh
Ġh urt
Ġis land
Ġdevelop ed
Ġsw eep
Ġrequ est
Ġpil ots
Ġin vent
st and
Ġafter noon
Ġstr uck
ind s
Ġfl u
ĠRep ublican
ĠDef ense
1 7
Ġl ab
ĠJ av
Ġsign ificant
Ġfund s
M ar
k i
Ġc reat
Ġto ll
ĠL oss
ĠRe g
Ġfl aw
inis ters
Ġreve aled
ff ic
Ġow ners
Ġexpl od
Ġneed ed
ĠJe an
ĠVi oxx
B ER
k l
Ġto get
ĠM P
ades h
Ġtoget her
A B
Ġs eeks
or er
Ġw eather
ur ers
le tt
ĠA re
Ġde ploy
ke i
ov ers
ik kei
u ation
ĠB ry
Ġv s
add am
larg est
Ġt ech
an i
Ġb ox
Ġm urder
Ġl ay
Ġprogram s
Ġred uce
Ġur anium
Ġpubl ished
ĠOak land
ĠR el
Ġr ule
ĠD ou
Ġwor st
Ġplan ning
mit ted
ĠGeor g
Ġpull ed
ĠForm ula
ĠHait i
Ġt ie
ĠS E
Ġmov es
y ard
ĠC y
ĠN okia
Ġits elf
OR ON
vel and
int endo
isc al
Ġsharehold ers
iconduct or
Ġin nings
ĠI S
ĠU t
ĠL ast
Ġexp ress
Ġdec ades
ĠPat riots
ĠIr ish
r ig
ĠG ets
Ġlaun ches
Ġtra ining
Ġbomb ing
Ġeas y
Ġinsurg ents
Ġcontrovers ial
M P
Ġc al
Ġb ook
im ir
ce p
Ġper iod
Ġinter view
Ġfil es
Ġmiss ile
ĠFin ancial
Ġconfl ict
r ation
om ber
ĠH us
ist ed
gr ess
Ġintrod uced
ORON TO
c ow
ĠS outhern
ĠL ab
Ġgo als
Ġ8 0
Ġrel ations
urrican es
go ing
Ġfav or
Ġenv ironment
ĠJob s
F ed
Ġs ong
ĠT ORONTO
Ġint egr
Ġmov ie
Ġban ks
Ġappear ed
Ġsubs id
ĠH it
ote b
OR E
Ġbro ker
ann ie
Ġfre ed
Ġpract ice
h ere
Ġm is
ĠO f
ĠK ing
ĠK ong
Ġcl ass
az on
Ġoper ator
ĠK ills
if ts
Ġdis miss
Ġenter prise
Ġsat ellite
lad imir
E n
Ġt echn
ĠP an
ĠB aseball
Ġsh opping
Ġres ol
Ġbu ilt
ĠEn ron
C l
S ony
p ool
ĠU nd
ĠG overnment
ĠE r
ĠSt ri
Ġwor ries
Ġquest ions
Ġstrate gy
al v
ĠT arg
Ġth ings
ĠR adio
Ġhelp ing
ĠEng ine
ĠSw ed
Ġdiffer ent
ĠAriz ona
m art
Ġm ember
Ġ( \$
Ġsec ure
Ġins p
Ġtouchdown s
in y
er y
Ġw ide
ĠS usp
all as
ĠCh airman
Ġsur f
Ġshow ing
Ġass ault
ific ation
Ġresp ons
ĠCle veland
C r
Ġex c
Ġsp ent
Ġmak ers
Ġprot ection
NY SE
ic ult
ĠC ost
mer ce
Russ ia
i os
r or
ĠS T
Ġhe l
ĠPro d
Ġcall ing
iver pool
ĠIP O
ill ed
anc ing
ĠSc ott
P akistan
l adesh
re es
re ed
ĠM iddle
ut ed
oun ts
ĠV ladimir
Ġind epend
Ġproduc er
Ġpar ts
I t
u ke
Ġs port
Ġf ix
ĠP AR
Ġl ock
ĠF ree
ul ner
ag ement
ĠIn to
ĠSt ep
Ġdec ade
ĠMart in
Ġmom ent
) :
ri ed
Ġow ner
Ġter ms
ĠAM D
ĠB onds
ĠN orthern
ĠD rop
em b
iz ing
Ġtarg ets
ĠAb out
it rust
Ġp it
ĠT enn
igh b
Ġwh y
Ġrecover y
Ġt ack
ĠD ame
ĠL ow
Ġis n
Ġj ail
Ġsecond s
Ġsur pr
Ġsur gery
ran ch
ĠPl ans
Ġpass es
w eek
Ġa uction
ol a
em ents
ĠTh om
ens ions
vent h
Ġprogr ess
ĠDe ad
Ġpass ed
Ġord ered
Ġarriv ed
Ġdownlo ad
Ġdam age
Ġrepres ent
bur gh
N ASA
Ġl ose
ĠO s
Ġpro sp
ĠJ ets
ĠK ansas
Ġext ra
ĠIv ory
ĠN AS
Ġcr icket
ĠPakistan i
Ġren ew
P l
qu es
ĠK y
Ġpre vent
Ġoper ation
Ġremain ed
Ġdom estic
Ġsom ething
f ire
ĠA ust
Ġg ather
act ion
Ġpre p
Ġph ot
ĠFor ce
R A
Ġc le
Ġ200 0
ĠFl a
Ġbat t
Ġprocess or
Ġc atch
ĠM ets
por ation
ĠK arzai
ĠV ict
ound ed
Ġwar ns
Ġleg isl
Ġmass ive
Ġprob ably
P ro
W eb
Ġw rong
uc ks
Ġsur prise
ĠOff icial
ĠDiv ision
ĠMicros ystems
w ar
Ġp air
ĠM OS
ĠD allas
ĠJ ason
Ġ4 9
ĠEn ergy
Ġshar p
Ġrepl ace
comp uter
C H
b acks
Ġp ict
ĠS addam
ĠT echnologies
ĠN ort
ra in
ib r
acks on
Ġbro ke
Ġref ug
Ġapprov al
ĠMS N
ĠRog er
N asdaq
Ġar g
Ġtra in
Ġext ended
ĠUkra ine
g ency
in h
Ġc rew
al ity
ĠI mp
ack ard
Ġar m
Ġind ic
Ġdel ay
ams ung
ĠFire fox
Ġearth qu
V ER
b ox
n ight
o or
Ġy en
Ġres c
Ġbl ue
ĠAr gent
ĠSte el
W A
z illa
on ents
is ions
Ġbegin ning
Ġbelie ve
Ġlawsu its
ĠA ct
ĠP owell
ĠJ im
Ġar ms
Ġ6 4
Ġadvert ising
P r
Ġa thlet
ar ters
ĠC uts
ĠR on
oc racy
Ġsh r
Ġsu it
Ġrel ief
ater ial
ĠCub s
Ġcomplet e
Ġf iscal
Ġc ause
el ing
ĠR a
os hib
ens pan
Ġ5 00
Ġbro k
ĠHam as
ĠMos cow
C L
he im
ĠC am
Ġl ot
ig ers
Ġfl at
ph oon
ĠEar nings
Ġstand ard
C on
R O
ĠH its
ĠJ ose
ĠK h
ab inet
Ġbl ack
ĠEx press
Ġco ast
ath on
ĠCol in
Ġsub scri
ĠSe es
Ġdisapp oin
oshib a
im ent
ĠSt art
Ġimp act
Ġdisc overed
Ġvir us
Amer ican
J A
ĠS am
ot ion
ra ig
Ġam b
Ġkn ee
Ġhop ing
ĠDis c
Ġpos itive
Ġstrugg ling
Ġtroubl ed
Ġ ide
ut ions
ts burgh
Ġworld wide
b reak
ar on
ĠSt and
Ġim age
Ġfac ing
ĠAng els
ĠPer cent
a u
er em
ĠS audi
Ġd one
ou ra
ĠB id
ĠB alt
ir ac
ĠRe le
Ġtri p
Ġdead line
T wo
Ġb ase
Ġr ank
Ġad op
Ġexplod ed
P ackard
f inals
y l
Ġc ross
Ġp aid
ĠM illion
ĠW estern
ĠH at
ĠE agles
Ġpro mp
oc ial
Ġfall ing
ession al
Ġwound ing
C AR
at ure
Ġb oy
Ġd anger
ĠF ood
ĠO kl
ĠV enezuel
Ġco ol
ĠQu arter
ĠExpl orer
O n
h t
ĠL eban
ri ve
ating s
ĠCon n
Ġcomm on
ĠMa e
Ġannounce ment
Ġsuff ered
ar ian
Ġc as
el ves
ĠR ises
Ġapp ears
Ġdem ands
ĠEng lish
Ġmov ing
Ġmort gage
a o
e als
ĠFr ank
Ġint elligence
Ġ200 2
Ġsc ore
Ġfin ish
Ġtri ed
ĠSc ientists
imb ab
ĠMer ck
rich ment
M an
i as
Ġp ension
igh th
Ġsp ark
uc ial
aw ks
Ġsur ge
Ġne ighb
ĠCl ub
ĠJust ice
4 0
Ġt ies
in th
ĠB at
Ġout put
ĠEx pos
ĠAir bus
DA Y
Ġadd ress
imbab we
B I
Ġs ession
Ġv enture
ust ed
Ġcomm un
Ġdevelop ing
ĠDe velop
Ġdead ly
ĠPost s
Ġve ter
W e
b es
ec ial
ĠH ot
em an
ĠIraq is
Ġcol lege
or ado
ĠP rize
od ies
Ġhigh s
Ġmarket ing
ĠBo ard
ĠCr ude
ĠDes ktop
AC E
ĠSm ith
ĠGrow th
T r
Ġc able
le w
Ġg reen
ĠG ar
ĠG ulf
Ġsc r
iz ation
Ġor ig
ĠEx ecutive
E T
ed d
om ic
ĠP en
ĠO ld
um s
ist ance
Ġres ign
Ġ200 1
Ġbenef its
ĠHew lett
I ON
ĠD olphins
ĠCo ach
P eopleSoft
Ġp ers
ro ke
ĠS n
ĠC A
ĠM ary
ĠL ank
Ġfl ights
Ġappro ach
ĠBang ladesh
ĠL ower
ĠE mb
ĠJ une
Ġpl ot
Ġbomb s
ĠWh at
CO W
sp eed
ĠSing apore
Ġcrim inal
A ir
d ick
im ore
ĠL iverpool
ah oma
Ġfil ing
Ġtele phone
Ġdet ails
Ġwatch dog
Ġtw ice
Austral ia
ĠPAR IS
D on
M c
h alf
re g
Ġh un
ĠH om
aw n
uct ed
Ġra ising
ĠPrem ier
re al
ĠP ent
ess ee
Ġde ter
Ġse ed
ms elves
Ġrest ruct
Ġhist oric
Ġpitch er
ĠUt ah
ĠMOS COW
G M
er g
Ġm iles
Ġh ous
ĠM usharraf
Ġg irl
ĠN ob
th a
Ġun l
ĠCor poration
Ġall owed
Ġsold ier
Ġnum bers
ĠDie go
o ke
Ġm inisters
ĠB ern
Ġst em
ĠTh reat
ens es
ef ore
ĠSc ot
Ġopt im
Ġlevel s
Ġalleg ations
ĠPit tsburgh
M o
P C
n ot
Ġto m
ĠS em
Ġl ack
Ġr ap
ĠH as
Ġv ulner
av ens
ĠSat urn
Ġins ide
Ġcomm unity
Ġmess age
f e
k eep
u ed
ĠA G
el ine
ec urity
Ġn ames
ach er
ĠMal ays
ĠJav a
n i
Ġthe mselves
Ġhe ar
Ġare as
Ġreported ly
Ġass ets
Ġadv anced
ĠNot re
Ġpoll s
comm unications
ĠTreas ury
e ated
f in
he lp
ĠTrop hy
Ġm ut
Ġh y
ĠM ount
ĠR angers
ĠSt ill
Ġsc ient
Ġvict ims
Ġtest s
Ġthreat s
Ġspec ies
we ight
bo ard
7 5
w ashington
ar is
ar row
Ġp anel
il ed
ĠN etworks
Ġse venth
Ġcr ack
Ġ7 0
ĠPal m
Ġqualif ying
ĠGeorg ia
ĠBalt imore
washington post
Ġs ure
at ab
Ġb rief
ot ing
ĠH P
ĠL ook
ĠJ ac
ĠJ ackson
ert y
Ġsix th
Ġord ers
an o
ar ies
ĠI ll
ĠSt ation
ull s
Ġprov ince
Ġtrad ers
Ġval ue
N BA
ĠT el
ĠT urn
ĠC it
et ary
Ġsh ift
ĠV ol
aw a
ict ion
Ġbec oming
Ġlook ed
Ġgr and
ĠOut look
Ġpurch ase
ed ro
ir st
Ġan sw
ak s
Ġsec ret
ĠPr ice
Ġkill s
ĠTr ans
ĠAb b
Ġattem p
Ġvir t
Ġweb s
2 4
b s
i us
Ġs oft
ĠD ow
Ġch ar
ĠCh all
Ġup set
Ġbeg ins
ĠIndust ry
ĠMic ro
ol is
ĠH ong
Ġex change
ĠCol orado
ĠHold ings
Ġestim ates
A t
r ate
at ural
ter oid
Ġd raft
Ġsp l
Ġreg ular
Ġfast est
ĠRich ard
n am
Ġn inth
Ġre ally
Ġst ory
im in
Ġex ports
Ġoff ense
Ġme an
Ġrel ated
istr ict
ener ation
a ur
e as
Ġp urs
Ġb udget
am i
ĠW eek
us ion
ith er
Ġac cept
Ġres olution
Ġdis play
ran ge
Ġpat ent
Ġinst ead
ĠMars h
ĠBry ant
ĠUnd er
3 5
Ġf oot
Ġm ount
ter ing
ct ic
ĠMar ch
Ġant itrust
ĠAssoci ates
ĠMin istry
Ġdri ver
new s
oteb ook
D ow
c at
ac ity
Ġg rew
ĠE y
ick ets
Ġpre m
rupt ion
ĠFall s
ĠSudan ese
ĠRob ert
ĠKill ed
Y ahoo
Ġt ennis
ĠC elt
ĠM ost
ĠG reek
qu ir
ul es
Ġfin ished
Ġcr ucial
Ġair port
Ġdem onstr
iff icult
Ġseem s
ĠC hen
ĠM ag
ot ype
Ġr all
op h
Ġhe ating
Ġv ar
iz er
Ġsum mit
. -
C ar
l ong
ed ia
ĠR em
and a
Ġexp ansion
ĠCl aim
Ġjump ed
L O
i ro
t r
Ġc ars
om en
iv id
og n
Ġindust rial
Ġdr am
Ġhot el
Ġc y
ic ed
Ġm iddle
Ġqu it
Ġdef ensive
Ġtest ing
ĠNov ell
Ġfamil iar
ĠShi ite
Ġcomple ted
ĠDod gers
ĠTenn essee
' re
ar ry
Ġb ur
Ġof ten
ĠC ould
Ġth ing
Ġl ines
ell ed
az e
Ġopen er
Ġstud ents
Ġhand held
IT Y
Ġcrit ical
Ġupgr ade
ĠOkl ahoma
Ġg olf
og s
port unity
Ġvot ing
Ġprepar ed
Brit ish
Ġpartners hip
e in
ĠM att
ĠB all
ĠG ood
ĠV ote
Ġend s
Ġcurr ency
Ġchall eng
eck ham
A ra
z a
Ġl ands
ĠF ight
and ed
ĠJ ew
ord an
Ġstr ength
az ine
Ġhead ed
Ġcol lect
ĠAssoci ated
Ġforec asts
Ġpack age
I J
e er
er ate
Ġh or
ĠB ell
ine z
ĠCol lege
Ġsem if
L C
N et
b ury
v an
er o
ic op
as c
ĠS EC
ĠL ad
ĠL ines
ain ing
ab ilities
Ġup d
Ġmiss ed
Ġprevious ly
Ġtom orrow
g en
Ġh alt
Ġl ive
ĠR oman
Ġun expected
Ġrecord s
app ing
ĠComm ittee
Ġconsider ing
ĠPac ific
Ġdecl ared
Ġw ays
Ġh urricane
ĠL at
um ent
iv ity
overn or
AL EM
Ġclos ing
Ġform at
Ġtreat ment
P S
ĠS ay
ĠS een
Ġd ate
ĠC ingular
um ble
ist ing
se in
Ġac cep
Ġres ume
Ġinc ome
ĠBra ves
Ġent ire
l an
Ġh on
Ġst un
Ġcl imate
Ġ3 4
ĠFalluj a
Ġmat ter
Ġsched ule
T ER
i que
k ish
in ers
on se
Ġb ought
ĠK eep
Ġall ows
Ġwar ming
ĠAl an
Ġquick ly
ĠNAS CAR
t e
ĠB et
Ġr ing
ain e
Ġar med
Ġor ganiz
Ġind ex
ĠMan ning
Ġmanufact uring
Israel i
p re
en gt
ĠC ell
ub le
ass ini
Ġtra ffic
Ġjoin ed
Ġhom er
ĠHam id
ĠLead er
ĠDon ald
stit ution
F l
o om
Ġ ill
ĠC al
ew ay
ry s
Ġte en
Ġor gan
Ġdec ide
Ġinclud e
field er
icip ated
Ġcopy right
ĠW ales
ap olis
Ġv ia
Ġj ud
Ġlead s
ĠOr ganization
ĠChar les
ĠBro ad
beat en
ATO DAY
h ard
h orn
Ġf aster
ĠC raig
ol ic
Ġcl ash
Ġres idents
Ġthan ks
ĠMc L
Ġcre ated
Ġemer gency
Pal estinian
help s
R M
l ers
Ġm aterial
Ġd ifficult
Ġre fer
Ġen richment
ous ly
ib an
ef ul
Ġadd ing
Ġcustom er
Ġey es
T icker
Ġc ards
ĠSt orm
ant age
Ġdis ease
pr int
str uction
Ġretail ers
ĠElect ronics
Ġopt ions
Ġvot ed
Ġdoub t
ĠPhilipp ines
S outh
he ll
Ġc ents
ĠJ ER
oc ol
ĠV ik
Ġnot hing
US ALEM
Ġreturn s
Ġbring ing
ĠIndones ian
ĠN Y
Ġext end
AM D
ev in
ĠJER USALEM
T ech
Ġf igh
ĠN ep
Ġst ars
Ġsp r
ĠCol omb
Ġopt ion
cast le
Ġdoc uments
Ġgener ation
m l
av al
Ġset ting
be an
Ġden ied
Ġwitness es
IJ ING
ed ed
ĠS im
ĠS ix
ĠW rap
Ġde als
ĠCh ris
Ġbank ing
ĠBar ry
Ġcond itions
Ġeas tern
Ġstep s
Ġbelie ved
Ġcandid ates
Ġcanc er
1 9
g eneration
ĠS ystem
ĠP GA
ig roup
Ġe ighth
ĠO PEC
ON G
Ġdel ayed
Iraq i
Ġlink ed
ĠBE IJING
S adr
ent y
ĠM ov
ĠR ally
amp a
Ġsc ience
Ġrec all
ĠAr t
ĠZ imbabwe
Ġsm art
Ġmod el
ĠAtt ack
Ġchang ed
Ġappar ently
ĠHus sein
G E
m ates
il ar
ĠFr ances
Ġsc ores
Ġ3 00
ush ing
Ġdisc l
Ġinfl u
ĠAnn an
ht ml
b l
ro ad
ĠS chool
ad or
ri ption
Ġcomp uting
Ġj et
Ġstr engt
Ġelect ronic
Ġcut ting
ĠAnd y
Ġboost ed
ĠTit an
rys ler
Ġf r
Ġsh ock
Ġwas n
ib ly
Ġput s
ĠSw iss
Ġprepar ing
ĠAnt i
Ġpri ority
Ġs on
ĠS k
Ġm ixed
ĠT error
ĠT igers
ĠP oll
ĠB ur
ĠD am
od af
ĠLe g
atab ase
quir y
r d
Ġb odies
ĠP ack
um n
Ġab d
Ġsol id
Ġbelie ves
Ġinvol ved
odaf one
u an
ĠT akes
Ġth r
ers ey
ĠG M
ĠG un
ĠH ug
ĠE v
ap se
ugh t
Ġmov ies
ym n
Ġcarry ing
ĠLank a
4 00
O U
h man
al i
ĠP edro
ĠF annie
Ġcr ashed
Ġmanag ers
ĠIndian a
Ġest ab
ĠHel p
Ġfri end
Ġcoal ition
L ook
h i
ew is
por ter
ĠV ideo
Ġup coming
Ġres igned
Ġ3 2
Ġinclud es
Ġadv ance
ĠQ aeda
Ġsmall er
ĠMo zilla
ĠFeder er
l ins
y an
ĠA z
ĠG ra
ĠG reat
ĠL ife
ain t
ang ing
Ġdoc tors
Ġindepend ent
o e
il s
ub urn
iz es
rac ts
ĠAll awi
ĠAm azon
Ġalleged ly
ĠCub a
ĠLad en
T I
Ġs ens
Ġs ought
ĠD igital
ier ce
Ġrece iver
Ġaim s
Ġactiv ities
on ing
ĠB illion
ĠO T
ĠK evin
ace ut
err ill
Ġtri b
ĠMart inez
Ġinit i
a heim
Ġ ut
Ġt urning
Ġp un
ĠT er
Ġg one
Ġst re
Ġr are
Ġal ways
Ġsc reen
Ġpart ner
Ġsur ged
Ġconf ident
ĠAd ministration
arm aceut
Ġstar ts
ĠAtt orney
ĠRet urn
ĠMe et
Ġbeg un
Ġretire ment
5 5
Ġw ife
ĠA OL
ĠC all
ĠC ITY
Ġg oods
ĠW atch
ĠN ikkei
Ġhe aring
ĠCh ip
ĠCon f
Ġenter ed
Ġactiv ity
ĠRoy al
4 9
g ic
Ġw ait
re c
st ant
ĠP rop
ch ie
Ġan im
Ġad mitted
Ġterror ists
Ġspec ulation
Ġbroad cast
Ġste el
Ġey e
ĠLaun ch
) --
m illion
Ġb and
Ġb ott
Ġm ys
Ġh al
ĠL ib
Ġun ions
av en
ish er
Ġput ting
iers hip
ĠCarl os
Ġhel icop
Ġmut ual
Ġ ens
Ġa wa
Ġc at
ĠM ess
ir th
us ive
ĠD S
ĠV is
Ġ3 3
Ġcent ury
ĠPlay er
ĠSy ria
G r
U M
Ġc it
ĠI I
ĠN uclear
Ġag e
ub ble
Ġro ok
row ing
Ġind ivid
ĠCons umer
Ġimprov ed
A Z
in it
ĠN intendo
os en
Ġun s
pl ace
Ġfl ood
ĠJo e
ĠHam m
6 5
Ġb ol
Ġmajor ity
Ġregion al
Ġconn ect
ĠTarg et
A U
N okia
Ġt ext
ĠT ampa
ĠK ey
Ġal though
Ġsp end
Ġsp ect
ĠSat ellite
ĠChar l
Ġsim ilar
Ġwithdraw al
Russ ian
ĠInvest ors
fin ance
S ch
i ary
ĠS ri
us hes
ĠF OR
ĠD eath
Ġv ice
ip le
arg o
St ar
ĠBo ost
ĠNews Factor
att led
ĠBig ley
ĠCong o
Ġprison ers
2 1
c ape
r ast
in ning
Ġm ist
Ġe le
ber t
inc inn
Ġshut tle
ĠHew itt
incinn ati
S ing
T V
in ter
he astern
Ġb ooks
Ġn arrow
Ġl iving
ĠW il
ri er
ĠJ on
Ġover time
uc ing
ĠNew castle
ph ere
EL S
Ġprom ised
Ġvot es
News Factor
H I
w ait
Ġp ushed
ter ror
Ġe ase
ĠCh ile
ĠAn aheim
Ġ4 5
Ġpre lim
Ġdevelop er
ty pe
Ġhand ed
Ġstand ards
6 0
A d
G l
j an
m ission
Ġs ides
Ġc ities
ĠJ r
Ġoffic ers
Ġdef ending
Ġfl ash
Ġbuy s
Ġenter tainment
Ġfind ing
Ġshoot ing
as ion
ĠB ears
ĠR un
Ġst adium
ĠE ver
ĠK AB
Ġag ent
ĠSp eed
Ġdo ing
ys is
Ġdev ast
Ġed ge
Ġresp onse
oper ation
Ġvehic le
Ġmach ines
Ġimmedi ately
ĠScot land
ro om
us ter
ĠL iber
Ġbe head
ĠJ ournal
ĠIn f
Ġv ill
Ġle aves
ist ons
Ġatt end
Ġpart ies
raw l
Ġstri kes
Ġdest ro
Ġveter an
ĠKAB UL
O P
es is
Ġp atch
Ġh um
Ġr ac
ĠH eat
ĠE uro
ap ova
Ġover night
Ġ3 8
Ġatt ention
ĠPro be
Ġdec lined
Ġrem ote
Ġass ist
Ġdeath s
Ġhard ware
Ġremain ing
ĠTal iban
Ġter rit
V o
h it
on ent
Ġw ord
Ġd ual
Ġre comm
ĠH op
Ġab use
ĠSh ow
Ġplan et
Ġstrong er
ĠGre enspan
Ġtrad itional
Ġvo ice
Ġrenew ed
Ġbrok en
K erry
c ks
e lection
u ild
ĠH er
ass i
ĠRe v
Ġemb assy
Ġmat ches
ĠLaun ches
Ġdesc rib
Ġp ur
Ġin n
ĠJ ordan
ian a
ĠTh an
ab ul
ick y
Ġtro uble
Ġ9 0
oth ing
Ġacqu ired
Ġfind s
ĠPrem iership
ĠRod dick
Ġwid ely
Ġsit uation
C E
Ġf ine
ĠS eeks
ĠI M
ĠB ron
est s
ĠSt an
Ġcr imes
ĠAtlant ic
Ġsuper computer
ĠVer izon
pro f
C isco
c ons
h ran
p ed
y ond
it er
ĠR and
Ġbe yond
ĠY our
Ġun beaten
ĠRe ports
ĠBl u
ĠPh one
ĠAnd re
Ġadv antage
Ġmag azine
S er
W ill
c a
f izer
ar q
Ġh am
Ġh ole
ĠT oshiba
ir us
ant ec
Ġres erv
Ġop ens
oin ted
Ġrem ov
Ġadd s
ĠRet ail
Ġgra b
Ġsepar ate
Ġincreasing ly
D ell
c os
Ġc orn
ĠS A
ĠC incinnati
ĠM id
Ġ4 1
Ġme ans
US S
ĠCol umb
Ġmain tain
ĠPac ers
ĠTw ins
Ġdisappoin ting
ĠNob el
C ent
i ece
z y
Ġf an
Ġw ords
Ġm ine
st ate
ĠB as
Ġqu iet
od ak
Ġcont rib
ĠFor ec
Ġass ass
Ġsusp ects
opp ers
Ġearthqu ake
ĠJew ish
P M
T C
f ort
Ġc ast
ĠS i
Ġm ot
ĠM r
ĠM et
ĠM ove
Ġl og
ĠN L
ĠH ockey
ĠL ewis
Ġk ind
Ġover t
Ġab and
Ġpost p
Ġbomb ings
Ġclaim ing
Ġpar ent
ĠIndian apolis
Ġinvestig ating
ann el
Ġunveil s
bus ter
ĠMont real
K ore
P ol
S udan
f eld
Ġt ent
in ch
ic ts
ĠS ub
ĠA id
ĠG ary
ĠH ard
ĠJ ack
oc a
Ġpl ays
ĠCh art
se eded
over y
Ġapp eals
Ġcap acity
app ed
ivers ary
ij ay
iet nam
Ġspe ech
ĠArgent ina
Ġrall ied
arq awi
2 2
P A
es p
Ġw ave
ĠF ive
ĠR aid
Ġsp ir
Ġofficial ly
oot h
ott en
Ġfail ure
opp ed
Ġsem i
Ġm ic
ĠM ake
ĠM akes
Ġr ather
ĠL ee
Ġv owed
art a
Ġdis aster
Ġim ages
Ġdef ence
ĠSec ond
Ġlaw s
Ġbr and
Ġdirect ors
ĠEgypt ian
ĠReds kins
Ġrook ie
Ġp rize
ĠM el
ĠM ach
Ġe Bay
est one
Ġpl aced
ord on
row ns
Ġsc oring
Ġatt orney
Ġhead ing
In tern
Ġel imin
Ġdoz ens
cel ona
0 5
S hip
ro b
st ar
ĠB rian
Ġn atural
ig ious
ĠL arry
Ġab s
Ġall iance
min ent
Ġcompet e
Ġleaders hip
ĠGu ard
ĠPlay ers
ĠMil an
Ġcle an
ĠJac ques
Ġwebs ite
Ġcit iz
j html
Ġa chie
Ġp ip
Ġb in
Ġd er
ou ts
Ġl ives
ĠR avens
th rit
ag on
ie ge
Ġsu ed
Sp ace
For mer
ĠCap ital
ĠMor gan
ĠWay ne
ĠStri ke
a ug
c ient
s ym
v a
Ġt iny
es h
Ġb arg
ĠB efore
ĠR iver
ill y
ĠD r
ĠUn veil
ĠIs land
ump ed
Ġcontinu ing
of i
Ġcapt ured
ĠAut o
ĠAut hor
Ġap olog
ymn ast
Ġf ranch
Ġb acks
ĠR ad
ĠIn j
Ġper fect
Ġall owing
Ġ7 00
Quote Look
Ġincre ases
Ġreb ounds
Ġtele communications
Ġinf otype
Ġkeep ing
ĠTe hran
Ġfeat ure
ĠBel g
Ġcam era
Ġq cat
Ġq type
finance QuoteLook
financeQuoteLook up
T LE
Ġt echnologies
in os
er c
Ġd ies
ĠT ax
id ered
ĠP T
ad em
ig ger
ĠW alt
ow b
ow led
ĠH ass
ly ing
ain ts
ab y
Ġsl am
Ġsup porters
Ġattack ed
Ġeven ing
Ġnation wide
Ġline up
Ġinst ant
ĠRo oney
ĠTro ops
Un ited
Ġvehic les
thrit is
. ;
7 0
A OL
L S
Ġt ell
Ġs y
Ġs al
Ġre ject
Ġle ar
ĠTh ird
Ġwor m
ber g
ven ue
Ġsent enced
ĠEconom ic
O ff
h aps
y ad
he t
Ġf air
Ġb i
ic ious
Ġre in
ĠW or
ĠH ear
ap ers
Ġover all
ang es
IN E
Ġdem ocracy
Ġass oci
Ġaut o
Ġthreat ening
Ġca ught
Ġed ged
stit ute
Ġprelim inary
B ra
a ver
Ġs un
ar ily
ĠS ports
ĠP et
ĠP eople
ĠE qu
Ġk ing
uc ation
St udy
Ġprov iders
ump s
Ġsuc ceed
erve z
ĠAcc ording
Ġprosecut ors
Ġwel com
Ġtack le
c ine
ĠS amsung
ur ton
ĠD ollar
ĠH ave
Ġab ility
ĠSh a
ĠAn other
ib urton
Ġim m
ang ed
ĠOff er
ĠMan agement
Ġkeep s
Ġlaunch ing
Ġprocess ors
ĠTur kish
Ġpred ict
Com p
Ġcou p
Ġrestruct uring
D S
k le
ĠA thlet
ĠP ervez
ĠG ov
Ġcom ments
Ġv an
Ġwh ite
Ġdef eated
Ġhold s
Ġviol ent
Ġtem por
1 8
F irst
w ell
Ġw est
ic als
ĠB reak
ol m
ĠD un
ĠG h
ĠH O
our cing
Ġro ut
Ġun less
Ġreport ing
Ġkn ock
ĠDen ver
Ġexpress ed
A A
M ore
m ond
Ġt en
ar ks
Ġb ell
Ġd ie
ec ess
Ġr ises
Ġch ances
Ġtr uck
Ġext ension
ĠSe ven
CA A
ĠClaim s
Ġdram atic
Ġ ver
Ġf ees
Ġw ond
ĠS ING
Ġd atabase
Ġg iants
Ġst ret
ĠG ates
ĠH oll
Ġcom eb
Ġag encies
Ġback ed
ĠCol ts
Ġra ises
Ġtele com
Ġadv is
Ġob serv
Ġtoward s
Ġfe el
Ġlift ed
roll ed
Ġsong s
Ġrap id
0 4
B UR
h ood
Ġc ur
Ġw ake
Ġp ra
ĠS um
ak ed
um ph
end ers
Ġse ized
Ġcomm and
raph ics
ĠEnter tainment
Ġsepar at
kn own
Ġz one
Ship One
b orn
an es
Ġb ul
ic ing
ĠS Y
ĠN e
ĠD irect
em en
Ġnew ly
AP ORE
Ġen j
fo World
Ġturn s
Ġport able
Ġcho ice
2 9
I G
h aul
el and
ĠP helps
ĠB us
ĠB eckham
ĠUS A
pr il
ĠAl i
Ġfail ing
Ġdriv es
ĠSING APORE
S ource
a uts
h ad
Ġs idel
Ġd rove
Ġd ream
Ġon to
et ts
Ġe ased
Ġe mail
oun ce
ĠV ijay
oy al
ĠTo day
Ġsol ution
Ġpo ised
Ġemer ged
Ġsaf e
Ġmanufact urer
Ġvend ors
ĠSteel ers
Ġcomeb ack
F C
re ens
Ġp en
Ġm al
ĠR ap
Ġwas h
Ġun f
Ġres um
Ġus er
eb r
ĠLe ads
Ġ6 5
gr am
Ġannoun ces
ĠPl c
els on
su le
ĠHe ad
sh aring
ĠSch illing
Ġstre ets
s ters
Ġ ult
Ġh urricanes
am ous
qu arters
ĠSt ore
Ġev ents
ĠLead ers
Ġcoll apse
Ġpick ed
udd en
Ġvend or
ĠThom as
ĠChall enge
C ard
S T
p ower
or al
ĠS ign
ĠA uburn
ra v
Ġpl un
Ġal tern
Ġj ury
ĠV ietnam
Ġbl asts
Ġgovernment s
eng ers
ĠQ ue
Ġinst all
Ġmess ages
Ġer up
Ġwa iting
Ġtechn ical
ĠVenezuel a
a e
Ġb omber
Ġin quiry
ĠA B
us etts
ĠJ ays
ach usetts
Ġwin ds
Ġtr igger
Ġannoun cing
Ġplan es
Ġpass enger
ĠSe ason
Ġcond em
Ġunc ertain
Ġcritic ism
Ġunl ikely
E G
m et
Ġt ur
Ġc erem
Ġp iracy
Ġfor t
Ġwor ks
ĠUn it
ĠĠ ĠĠ
Ġpart ic
ĠFor ces
Ġhead s
pos ed
Ġdead l
Ġfall s
ĠAc qu
Ġinvol ving
t ada
it ude
ĠA pril
Ġl ap
ĠG ordon
ag ers
Ġhe at
Ġsh ipping
ĠK obe
Ġrev ers
Ġref used
Ġpeace keep
Ġban ned
Ġdoub led
Ġmeas ures
B ar
E FA
W al
er as
al ing
ĠT re
un ich
Ġoff set
ug gle
Ġal ive
Bl air
ĠMilit ants
ĠReb els
Ġenc oura
Ġocc up
Ġlawy ers
B omb
a ire
a ida
o ch
is ter
ĠW ild
ĠL im
ĠJ ersey
ĠSt ud
ĠK ar
ab les
oy ota
az er
Ġcons idered
Ġso aring
Ġbreak ing
Ġdriv ing
Ġimprov ing
Ġcreat ing
Cent ral
S A
c ost
Ġ ice
Ġs elf
Ġd ial
ĠC arter
ĠL ions
Ġun its
Ġseason s
Ġdel ays
rel ated
Ġposs ibly
ĠFin al
Ġvir uses
ino is
ĠMass achusetts
Ġrefug ee
Ġide a
4 7
E A
Ġf it
ĠI d
os h
ap ed
Ġqu ite
Ġcont est
Ġcont racts
Ġann iversary
Ġsur round
Ġpost season
NE Y
umm ary
L e
c ont
d ollar
w h
ĠC D
ĠP ass
Ġst reet
Ġr is
im p
ĠO pt
ĠJ agu
Ġcl ashes
Ġra id
ĠDemocr ats
ĠBrazil ian
Ġrad ical
angu age
ĠJean ne
ĠConn ect
Ara fat
g u
s ide
ar et
Ġc old
is ation
ĠS ource
Ġon going
Ġe ither
ĠY oung
Ġtri es
Ġinj uring
Ġtrad ed
ĠEnter prise
Ġsqu ad
owb oys
B ig
b urg
e z
m ate
s un
Ġb irth
le ment
ĠP le
Ġl ows
ĠD EL
ĠG olf
em ploy
ĠK im
ĠK abul
ĠK ofi
out heast
lect ed
her lands
Ġsl ide
Ġsw itch
ĠOff ers
Ġschool s
Ġstat us
Ġexplos ives
ĠChe chen
Ġpush ing
Ġdismiss ed
" \
H ow
b ar
b el
Ġf arm
Ġp act
ĠL o
ak arta
ĠJ am
oy a
ĠAn ton
ĠCom merce
air s
Ġcond ition
Sh aron
Ġcivil ians
Ġconv icted
Ġfav our
ĠNiger ian
Ġprop erty
ĠVo IP
Ġsurpr ising
Ġresc ue
G old
p ass
Ġs igning
ĠS old
Ġm os
ĠC urt
ĠP ackers
ir ates
ĠN O
ĠSt udy
ĠV I
Ġsec urities
ib bean
Ġ4 8
ital ia
Ġwork er
Ġli qu
ĠMar tha
ese ason
ĠBar celona
Ġpat ients
Ġhol y
Ġmult i
ĠAdv anced
ĠLeban on
Ġfranch ise
p en
Ġ era
ĠR ay
ĠH D
ch er
Ġsh ots
Ġrec ogn
Ġcomm unications
Ġdevelop ers
ĠBu ild
Ġpract ices
ĠSet tle
Ġmach ine
ĠBob by
Ġlawy er
Ġconc lud
Ġwash ington
9 0
S e
S EC
es ters
ĠP H
Ġcon vention
ĠPl us
Ġins isted
Ġinf ring
Ġsol ar
stand ing
emb ly
Ġwashington post
C I
D NEY
G eneral
P H
ĠS qu
end um
Ġim press
ER S
Ġwe ight
Ġpost s
ĠWar ns
Ġdri ven
MS FT
Ġgreat er
ruct ure
ĠMalays ia
N eal
S m
in ters
re tt
Ġh ockey
ĠC os
ĠM ah
ĠM iller
Ġr at
ĠG e
ĠH y
ect or
ĠSh are
ĠSp am
AN D
Ġcons erv
ĠBl ock
AM A
Ġev ac
ĠCount y
Ġlegisl ation
ĠSY DNEY
A m
b or
Ġs ound
ĠS eek
ĠS BC
ĠT rial
ĠP ast
ĠW on
ĠD aily
Ġhe ard
Ġop portunity
ash ion
ures mo
enn an
ivers al
ĠPe ter
Ġsem iconductor
ĠStand ard
3 00
m its
Ġs hel
Ġb ench
ĠA head
Ġr acing
ce an
ĠK enn
Ġsp yware
ens ing
Ġstr uggle
atch er
Ġadd itional
sh ot
ĠUs ers
4 5
I V
Q aida
b an
g round
Ġ )
ĠS ears
ĠP il
ĠP istons
ol ine
Ġat omic
Ġpro ve
art ner
Ġsp ring
Ġ7 6
Ġrece ive
Ġste ady
ĠDel hi
Austral ian
Ġdoz en
USS ELS
B o
T T
u ros
Ġh our
ĠB OS
Ġn otebook
Ġg ear
ĠW omen
Ġex am
ack ing
ave z
ĠTh anks
Ġen h
Ġcomm ittee
ĠIran ian
ĠMc C
Ġmess aging
ĠArab ia
Ph il
ĠField s
erg us
Ġspl it
I AN
J udge
f inal
Ġb al
ay er
ĠC assini
Ġde leg
ĠK mart
Ġag gress
Ġatt ract
ĠAir port
Ġrel ie
Ġfell ow
ĠSun ni
Ġfig ure
Ġcomb at
Fr ench
Ġcorn er
A ll
m ens
ĠG as
ĠL yn
Ġcon struction
Ġde part
Ġrele ases
iam ond
ĠApp l
iol ence
ĠCar ibbean
Ġbet a
ĠQu est
Ġmod els
Ġtax es
ĠNet herlands
Ġgain ed
Ġbit ter
Ġdanger ous
S up
V er
it ect
le e
ĠB BC
ĠN A
ĠN eed
ĠE ven
ĠO v
Ġde put
ov o
ash ing
Ġar en
Ġprom ises
Ġevery thing
ĠDev ices
ĠKy oto
ĠHO US
D elta
z z
ic ated
om ers
el ed
ĠP ad
ot es
ĠSt rong
Ġsp read
ant as
ĠMar iners
uts che
ĠEd ition
ĠSch w
Ġseem ed
ĠWork ers
ĠBR USSELS
Ġenvironment al
Ġresol ve
Ġfigh ters
C D
q tada
Ġt ied
Ġf ather
Ġc ease
ĠT ri
om er
Ġst opped
ĠD an
Ġor ganization
Ġair lines
St ation
Ġprov ided
Ġsell s
arm ony
red it
Ġjoin ing
Ġpres ent
Ġintrod uce
Ġident ity
Ġfri ends
Ġpled ged
Ġsubscri bers
Ġhous ing
Ġbott om
rast ructure
4 6
l ike
Ġm aster
Ġd i
om es
Ġl ibr
ut y
em ens
ia b
end a
oun ces
ub s
Ġrec r
ĠPh oto
Ġmanag ed
Ġfound er
Ġbeat s
ĠOr d
Th is
Ġclimb ed
Ġresign ation
ĠMcL ennan
ĠLib ya
B O
G u
he m
ar r
Ġb re
ĠS EO
ĠJ er
Ġv ide
Ġar thritis
Ġreg ard
ath an
Ġsusp ension
Ġpass engers
Ġpolit ic
Ġmar athon
amb od
Ġbenef it
Ġplayoff s
Ġconn ection
ergus on
o en
Ġt able
Ġs udden
Ġf rust
re ll
ĠF oods
ow a
if ying
ĠSp itzer
ĠAr rest
Ġph ys
Ġinj uries
ene g
Ġfac ed
Ġbreak s
ĠFir m
Ġsk y
Ġcarri ed
Ġappar ent
Co Mo
ĠLab our
Ġprep are
ĠHass an
B erry
Q aeda
T ime
Ġs ust
Ġs teroid
Ġc urb
al y
al yst
ĠC anc
ĠM ad
ĠF err
ip e
Ġprod uce
Ġmilit ia
Ġhead quarters
Ġshow down
Ġkn ew
Ġthrough out
AT ION
Ġresp ond
ĠRy an
Ġexpand ing
LAN D
Ġdeter min
Ġstrengt hen
o il
Ġf at
le ans
ĠJ akarta
Ġsh aring
Ġsl ipped
Ġinvest or
ĠSer b
aza a
Ġste pped
Af ghan
ĠRa ises
Ġsemif inals
Ġenj oy
u a
ĠS adr
am o
ir t
ĠF ox
ĠH and
ap ter
ĠSt aff
Ġacc ident
Ġfl ags
Ġbig ger
ink ing
Ġext rem
Ġnetwork ing
Ġpred icted
Ġclin ch
ĠOfficial s
ĠAnton io
ĠHOUS TON
C ourt
P ac
S U
Z arqawi
w ich
Ġp enal
Ġp aper
id end
Ġn ort
ol id
Ġan kle
ĠThe ir
Ġal ert
ĠPr ince
ock et
oss ible
Ġlaw makers
Ġant icipated
Ġany thing
Ġmin ute
Ġche m
ĠBu ff
Ġopp onents
Ġclear ed
Ġdomin ated
Ġpotential ly
mo han
ĠCharg es
ĠLong horn
Ġjournal ists
. \\
c an
d ef
ar ound
Ġp ion
ĠS alv
ĠC alls
Ġacc ounts
Ġback ing
Ġdef end
Ġpart icip
ĠFl at
Ġser ve
ĠAd d
ĠOr leans
ĠEd wards
Ġsuggest s
ĠTit ans
Ġwat ched
ĠMary land
awa ited
Ġdestro y
ĠColumb ia
k ing
l or
ar ant
ĠS ite
st ra
ĠU EFA
ĠO b
Ġas ide
Ġpro jects
oun ced
uc cess
Ġ4 2
Ġhigh ly
Ġcould n
Ġlarg ely
Ġmed als
Ġtri umph
ump ing
Ġstrong hold
Ġcor ruption
Col a
ĠBOS TON
S BC
Ġc ore
ĠM arg
ĠB ol
Ġg ro
Ġoff ices
urn ed
Ġear n
ĠEn v
ĠCl in
Ġ19 8
ĠBr ad
iff e
ugg ish
TA WA
Ġpit ched
ĠAust ria
C ons
d en
d ney
r ated
ĠC oll
ĠL ine
ĠSh ort
OR TS
ĠAr ctic
Ġam ount
ĠOp er
Ġred uced
Ġcrit ics
Ġple aded
Ġrej ects
ĠMotor ola
Ġchalleng es
ĠUnveil s
Ġcerem ony
F I
N FL
w ork
Ġp orn
Ġm ind
il i
om et
ac ement
Ġg ran
ĠAd rian
arm ing
amil ton
BA D
Ġcond uct
Ġob tain
Ġland mark
Ġrequ ire
Ġpres ence
Ġqualif ier
Ġwrit es
Ġreform s
Ġpict ure
Don ald
ĠOT TAWA
Kore a
Intern et
5 4
e ter
f all
Ġ ir
Ġc ases
le vel
ĠT ool
ĠF ar
ĠR oll
Ġpro ceed
Ġcomp ens
iz ards
gr ade
Ġcan not
ĠFor est
ĠPh ill
Ġsusp ect
Ġexpl o
cl iffe
Ġvis iting
Ġhol es
ĠGar c
ĠEmb assy
B rief
r one
t ops
t ech
Ġ ign
it tle
at eway
Ġb rawl
Ġd aily
ĠP ublic
Ġe m
ĠR w
ĠR ules
th rough
ul ate
ans on
ach ing
Ġad s
Ġor bit
Ġ5 5
ĠCl ose
Ġhit ting
Ġproduc ed
ĠX box
Ġsuccess or
ĠShar apova
Ġreach ing
Ġkidnapp ers
Ġsuff ering
Ġinsurg ent
ĠRock ets
ĠMy an
ĠGen esis
ĠOs ama
ĠBat tle
ĠForec ast
employ ment
2 8
F ID
N ov
T H
T op
e et
u ing
ĠS tern
Ġd ig
le et
ĠM ut
ĠM any
ĠB an
ĠB rowns
ĠD C
ĠJ oin
Ġsa v
ast e
um acher
Ġag ents
uc es
Ġexp ert
ĠAn th
ĠPro v
ah awks
Ġwe aker
Ġbid s
ĠSc ience
Ġcent re
Ġclos ely
ES T
Ġeas ier
Ġmeas ure
ĠHost age
ĠCit igroup
aze era
Ġassist ant
p iracy
Ġc art
ĠS ocial
Ġm us
Ġm arg
ter ies
ĠM our
ĠW enger
ĠF ace
ĠThe ft
oc al
Ġover haul
ond a
urr ed
Ġany one
Ġjoin s
Ġposs ibility
ĠSy dney
Ġevery one
IL LE
ĠMuslim s
ĠTra vel
ĠMos ul
ĠHel ens
miss ions
yc os
Ġcam eras
Ġsil ver
Ġrespons ible
Ġvirt ual
ĠMyan mar
D P
n el
w oman
z ech
Ġ esp
Ġf ate
al em
Ġb ull
Ġm il
ĠF ind
ĠJ P
ine a
Ġsp in
amp le
act ive
ĠInd ians
land o
ars h
Ġagre es
Ġlarg er
Ġimp lement
ik es
uck y
ĠMot ion
ĠPlay Station
ĠSy m
ĠEl s
Ġsuggest ed
Fr ance
Ġilleg ally
Ġhapp y
Ġdeliver ed
Ġinvent ories
ecial ly
ums feld
Ġdescrib ed
Ġcitiz ens
E d
t ion
Ġh ur
st one
ac co
Ġe p
ĠO pp
ĠK odak
ick en
Ġ3 6
Ġbl amed
az z
Ġpay ing
Ġmanufact urers
inh o
ĠDEL HI
S S
S w
l ife
s s
at ively
is ner
ay ing
Ġd oping
ol ves
ĠD et
ĠD ick
ĠE ff
ri f
Ġwor ry
ĠV odafone
Ġ200 7
Ġ200 8
Ġper haps
Ġfin ed
aw ay
Ġim pl
Ġ6 00
US T
ĠApp rov
rem lin
Ġmod est
ĠChar ley
Ġexpand ed
Ġspam mers
Ġovers eas
Ġurg es
Ġansw er
Ġhelicop ter
I tal
g iving
i very
l on
m on
Ġ /
Ġs iege
Ġo usted
re ck
Ġb reat
Ġl inks
Ġg raphics
ĠF ut
ĠE SP
ab led
ect ive
Ġdis rupt
Ġworld s
ĠRe f
Ġprov iding
Ġinf rastructure
ĠAnd rew
Ġfoll ow
Ġvers ions
ĠEd ge
ĠElect ric
Ġca using
Th ree
etro le
Ġent ry
Ġemer ging
Ġcoll abor
Ġroll ed
ĠTit le
Ġsurf ace
sun ami
b est
h ill
ed er
ĠC ross
ĠF oll
im ming
ĠG AZ
ĠH uman
ĠL as
Ġac kn
Ġint ens
Ġear ned
Ġret urning
Ġ6 6
ĠSe a
Ġlow est
Ġtalk ing
Ġcou ple
Ġsuccessful ly
Ġfly ing
Ġfear ed
Ġcommission er
Ġrank ing
ĠIll inois
ĠNep al
G B
N etworks
V al
b urn
o ard
v ic
Ġ et
Ġc yc
Ġp owers
ĠC at
ac he
ĠW ood
ĠW ants
Ġ1 50
Ġse at
ff ord
Ġsec retary
Ġdemand ing
eg as
Ġestim ated
Ġdiplom ats
Ġdep artment
Europe an
Cr ude
ĠESP N
9 9
S u
d em
i en
Ġt re
in ated
Ġin aug
Ġn orm
ĠF al
ort ium
Ġrem ember
ĠMar lins
min ute
Ġtit les
Ġexper im
Ġsubsid iary
Ġens ure
Ġdeput y
etrole um
Ġackn owled
' ve
A Y
E l
O C
h our
l n
n ie
st roke
st ein
ĠP fizer
ĠB asketball
Ġl ove
ĠW ell
ĠW ater
ĠY ears
Ġj ailed
ĠSh an
Ġplan ts
ĠIt anium
Ġhelp s
Ġbro ther
Ġprogram me
AT TLE
ĠOr lando
ĠPart ners
Ġpos itions
Ġaff ect
ĠSil icon
ĠNort el
Ġterrit ory
ymnast ics
ĠVI EN
ĠGAZ A
L D
c ott
m aking
it ches
ĠS ince
Ġh ike
Ġd ark
ĠC rit
ĠC RM
ĠC owboys
ĠG ains
ĠH ere
ick ing
ens on
Ġcr u
Ġstr ing
AN G
Ġrecord ing
ĠCon vention
Ġtarget ing
ipp i
Ġround up
Ġdriv ers
Ġdistrib ution
ĠEconom y
Ġrelations hip
ĠSwed en
B usiness
F ire
I ns
b illion
c ard
ĠM ult
ĠM oon
Ġg am
Ġe uros
ĠF av
ĠR af
ĠD NA
um ber
Ġcomp lex
olog ists
Ġcap sule
ĠMar ia
ĠAg assi
ĠAb d
ĠCr icket
Ġinst it
Ġouts ourcing
Pal m
ograph y
ĠNets cape
Ġfavor ite
Ġlock out
Ġrefer endum
aval iers
ĠHoll inger
5 3
L IN
M T
M on
V ILLE
c ore
n ya
s ized
Ġt im
Ġh ired
ad ow
ol en
ĠF ile
Ġst ands
ch nya
ĠSt ra
Ġex ec
Ġwill ing
ĠV s
ark et
Ġdis pl
ced ented
Ġwar nings
Ġmonth ly
ĠAl though
ĠComp anies
ĠAT LAN
Ġfoll owed
ĠGu inea
ĠAm id
ĠChampionship s
esc ope
ĠPer u
Ġwatch ing
ĠSm art
ĠEnd s
Brit ain
ĠSol aris
Ġastron auts
pre cedented
ĠAnth ony
4 8
H igh
O lymp
P utin
n a
w estern
ĠS ell
ĠT en
ĠB es
ĠB uc
ĠE mp
ĠIn stitute
Ġex act
Ġsc reens
Ġad j
Ġtarget ed
Ġreb ound
Ġmeet ings
Ġform ally
ĠPar liament
Ġdownlo ads
Ġstrugg led
Ġheavy weight
ĠProt ocol
d om
f ol
n o
r ace
Ġp ole
ic ut
ĠP ict
ast ic
Ġpr im
ab e
ip se
ĠV a
Ġcl ient
port ation
Ġacc using
Ġoffer ings
Ġoper ators
ĠMan mohan
ĠSup ply
ĠEar ly
IT ED
umb led
ĠHar ry
Ġbus y
ĠUr ges
ĠSem iconductor
ĠCelt ic
Ġpartic ular
Ġmos que
' ll
2 3
A H
L AMA
P R
c le
o hn
Ġc ult
ĠT oyota
ĠC BC
ve ment
Ġcomp ared
ĠCh avez
od d
Ġapp ointed
oin ts
Ġdo or
Ġcurr ently
ĠJust in
ĠSP ORTS
ĠBlack Berry
Ġsuppl ier
Ġlim ited
Ġaccep ted
ĠColomb ia
LAMA BAD
4 3
B ank
S ec
T ur
Y ankees
k a
v ard
in oc
Ġc abinet
Ġp an
is hes
Ġh unt
ĠT ay
ĠM at
ĠM eg
ĠR ace
Ġr ich
ĠD istrict
ĠL inks
Ġas ks
em ale
ust s
Ġelect ric
ins on
Ġ7 8
ĠBl ast
Ġshould er
ask a
Ġtrans fer
Ġmembers hip
ĠTra fford
Ġgun men
Ġsharehold er
ĠIS LAMABAD
ĠStep hen
E ar
c ut
g a
g s
Ġ 39
ĠC oca
el ess
ĠF erguson
ĠE ri
Ġpr eseason
Ġwor ried
ĠAs k
Ġph oto
Ġmost ly
ĠFl ight
ĠComm un
ĠAd obe
Ġinclud ed
ĠOff ic
off s
urg ents
ĠCont rol
ĠWe igh
Canad a
mark et
ĠHen man
ĠTele com
Wh at
van ia
Ġupd ates
ĠMarg aret
M B
M obile
