{"<s>":0,"<pad>":1,"</s>":2,"<unk>":3,"<mask>":4,"World":5,"Sports":6,"Business":7,"Sci/Tech":8,"!":9,"\"":10,"#":11,"$":12,"%":13,"&":14,"'":15,"(":16,")":17,"*":18,"+":19,",":20,"-":21,".":22,"/":23,"0":24,"1":25,"2":26,"3":27,"4":28,"5":29,"6":30,"7":31,"8":32,"9":33,":":34,";":35,"<":36,"=":37,">":38,"?":39,"@":40,"A":41,"B":42,"C":43,"D":44,"E":45,"F":46,"G":47,"H":48,"I":49,"J":50,"K":51,"L":52,"M":53,"N":54,"O":55,"P":56,"Q":57,"R":58,"S":59,"T":60,"U":61,"V":62,"W":63,"X":64,"Y":65,"Z":66,"[":67,"\\":68,"]":69,"^":70,"_":71,"`":72,"a":73,"b":74,"c":75,"d":76,"e":77,"f":78,"g":79,"h":80,"i":81,"j":82,"k":83,"l":84,"m":85,"n":86,"o":87,"p":88,"q":89,"r":90,"s":91,"t":92,"u":93,"v":94,"w":95,"x":96,"y":97,"z":98,"{":99,"|":100,"}":101,"~":102,"¡":103,"¢":104,"£":105,"¤":106,"¥":107,"¦":108,"§":109,"¨":110,"©":111,"ª":112,"«":113,"¬":114,"®":115,"¯":116,"°":117,"±":118,"²":119,"³":120,"´":121,"µ":122,"¶":123,"·":124,"¸":125,"¹":126,"º":127,"»":128,"¼":129,"½":130,"¾":131,"¿":132,"À":133,"Á":134,"Â":135,"Ã":136,"Ä":137,"Å":138,"Æ":139,"Ç":140,"È":141,"É":142,"Ê":143,"Ë":144,"Ì":145,"Í":146,"Î":147,"Ï":148,"Ð":149,"Ñ":150,"Ò":151,"Ó":152,"Ô":153,"Õ":154,"Ö":155,"×":156,"Ø":157,"Ù":158,"Ú":159,"Û":160,"Ü":161,"Ý":162,"Þ":163,"ß":164,"à":165,"á":166,"â":167,"ã":168,"ä":169,"å":170,"æ":171,"ç":172,"è":173,"é":174,"ê":175,"ë":176,"ì":177,"í":178,"î":179,"ï":180,"ð":181,"ñ":182,"ò":183,"ó":184,"ô":185,"õ":186,"ö":187,"÷":188,"ø":189,"ù":190,"ú":191,"û":192,"ü":193,"ý":194,"þ":195,"ÿ":196,"Ā":197,"ā":198,"Ă":199,"ă":200,"Ą":201,"ą":202,"Ć":203,"ć":204,"Ĉ":205,"ĉ":206,"Ċ":207,"ċ":208,"Č":209,"č":210,"Ď":211,"ď":212,"Đ":213,"đ":214,"Ē":215,"ē":216,"Ĕ":217,"ĕ":218,"Ė":219,"ė":220,"Ę":221,"ę":222,"Ě":223,"ě":224,"Ĝ":225,"ĝ":226,"Ğ":227,"ğ":228,"Ġ":229,"ġ":230,"Ģ":231,"ģ":232,"Ĥ":233,"ĥ":234,"Ħ":235,"ħ":236,"Ĩ":237,"ĩ":238,"Ī":239,"ī":240,"Ĭ":241,"ĭ":242,"Į":243,"į":244,"İ":245,"ı":246,"Ĳ":247,"ĳ":248,"Ĵ":249,"ĵ":250,"Ķ":251,"ķ":252,"ĸ":253,"Ĺ":254,"ĺ":255,"Ļ":256,"ļ":257,"Ľ":258,"ľ":259,"Ŀ":260,"ŀ":261,"Ł":262,"ł":263,"Ń":264,"Ġt":265,"in":266,"er":267,"Ġa":268,"on":269,"he":270,"es":271,"Ġs":272,"or":273,"an":274,"Ġthe":275,"ed":276,"en":277,"ar":278,"it":279,"at":280,"Ġf":281,"Ġo":282,"Ġc":283,"ing":284,"al":285,"Ġw":286,"re":287,"Ġp":288,"Ġto":289,"Ġb":290,"is":291,"Ġin":292,"ic":293,"ro":294,"as":295,"Ġof":296,"ĠS":297,"Ġm":298,"ay":299,"il":300,"nd":301,"Ġh":302,"ion":303,"ter":304,"Ġd":305,"le":306,"ĠA":307,"ou":308,"ĠT":309,"ĠC":310,"id":311,"om":312,"st":313,"ent":314,"Ġand":315,"ĠM":316,"Ġon":317,"et":318,"el":319,"ac":320,"ur":321,"Ġth":322,"ec":323,"ĠI":324,"ĠP":325,"ad":326,"Ġfor":327,"ĠB":328,"Ġn":329,"Ġl":330,"ig":331,"am":332,"ol":333,"ot":334,"ir":335,"Ġre":336,"Ġg":337,"ut":338,"Ġe":339,"ers":340,"Ġ-":341,"ĠW":342,"Ġ#":343,"day":344,"us":345,"39":346,"ĠN":347,"ve":348,"ĠF":349,"ĠR":350,"ill":351,"Ġst":352,"Ġr":353,"ow":354,"Ġ(":355,"est":356,"Ġit":357,"im":358,"ĠD":359,"th":360,"ver":361,"ĠU":362,"ra":363,"ation":364,"ĠG":365,"un":366,"ĠH":367,"ly":368,"ĠL":369,"qu":370,"ts":371,"ch":372,"up":373,"ith":374,"ĠE":375,"ew":376,"ear":377,"Ġan":378,"ĠO":379,"Ġat":380,"ce":381,"ak":382,"os":383,"igh":384,"Ġbe":385,"ul":386,"Ġas":387,"and":388,"Ġthat":389,"Ġwith":390,"ag":391,"ri":392,"em":393,"ld":394,"ters":395,"op":396,"ĠThe":397,"ess":398,"Ġcom":399,"Ġpro":400,"ain":401,"Ġ1":402,"Ġis":403,"Ġy":404,"ĠJ":405,"oc":406,"Ġsa":407,"ks":408,"Ġcon":409,"Ġits":410,"ĠIn":411,"'s":412,"ap":413,"ct":414,"all":415,"ian":416,"Ġ2":417,"Ġhe":418,"00":419,"Ġde":420,"Ġv":421,"ate":422,"uters":423,"ast":424,"Ġsaid":425,"um":426,"Ġby":427,"ft":428,"ĠSt":429,"ost":430,"ore":431,"ies":432,"ia":433,"our":434,"end":435,"Ġhas":436,"por":437,"Ġle":438,"rom":439,"ee":440,"Ġsh":441,"Ġqu":442,"Ġwh":443,"Ġex":444,"Ġpl":445,"ight":446,"ĠK":447,"ust":448,"Ġch":449,"oo":450,"euters":451,"Ġcomp":452,"und":453,"ack":454,"Ġfrom":455,"ist":456,"ment":457,"iv":458,"ity":459,"ard":460,"art":461,"Ġag":462,"ial":463,"pp":464,"if":465,"Ġpr":466,"oun":467,"Ġoff":468,"fter":469,"..":470,"esday":471,"ine":472,"ĠCh":473,"ug":474,"ive":475,"ud":476,"Ġhis":477,"ell":478,"Ġwas":479,"Ġwill":480,"Ġk":481,"ted":482,"ave":483,"Ġal":484,"ry":485,"ĠTh":486,"ab":487,"lt":488,"gt":489,"Ġnew":490,"ord":491,"Ġsp":492,"Ġafter":493,"ob":494,"ice":495,"ĠY":496,"ip":497,"Reuters":498,"oft":499,"Ġover":500,"mer":501,"ere":502,"Ġj":503,"Ġfir":504,"Ġse":505,"Ġwor":506,"arg":507,"ions":508,"ff":509,"ould":510,"ace":511,"se":512,"ĠV":513,"are":514,"ans":515,"ie":516,"ĠFr":517,"ĠUS":518,"ong":519,"ub":520,"Ġup":521,"ays":522,"ning":523,"\\$":524,"Ġhave":525,"Ġcl":526,"ick":527,"old":528,"any":529,"uc":530,"Ġyear":531,"tern":532,"wo":533,"out":534,"Ġare":535,"Ġtheir":536,"ue":537,"Ġout":538,"ge":539,"ame":540,"Ġac":541,"ome":542,"Ġ\\$":543,"Ġro":544,"Ġquot":545,"illion":546,"ail":547,"Ġun":548,"ke":549,"Ġsec":550,"ĠPr":551,"ide":552,"over":553,"ign":554,"ant":555,"ident":556,"ree":557,"ros":558,"ile":559,"AP":560,"ark":561,"ex":562,"ime":563,"ond":564,"ire":565,"Ġexp":566,"od":567,"ep":568,"Ġint":569,"raq":570,"Ġab":571,"ors":572,"og":573,"ake":574,"Ġfirst":575,"ens":576,"own":577,"ĠMon":578,"av":579,"ĠUn":580,"ish":581,"ass":582,"Ġtwo":583,"ich":584,"amp":585,"Ġres":586,"age":587,"ices":588,"ĠIraq":589,"ase":590,"urs":591,"ations":592,"eek":593,"port":594,"one":595,"ON":596,"Ġ200":597,"ber":598,"com":599,"Ġ--":600,"Ġop":601,"oll":602,"row":603,"ates":604,"ĠNew":605,"ure":606,"Ġagain":607,"Ġper":608,"rop":609,"ĠAP":610,"ary":611,"Ġmore":612,"hen":613,"ect":614,"ther":615,"act":616,"esident":617,"iday":618,"Ġbut":619,"Ġcont":620,"Ġsc":621,"Ġlead":622,"Ġ3":623,"ets":624,"Ġfin":625,"ach":626,"Ġrec":627,"edn":628,"ĠMonday":629,"erv":630,"ote":631,"ednesday":632,"uesday":633,"Ġte":634,"ance":635,"rit":636,"...":637,"hn":638,"hed":639,"Ġwin":640,"ĠWednesday":641,"ov":642,"ĠTuesday":643,"ursday":644,"Ġen":645,"ory":646,"iz":647,"mp":648,"Ġtr":649,"ank":650,"ĠInc":651,"ĠThursday":652,"lect":653,"Ġcompany":654,"anc":655,"ite":656,"Ġthis":657,"iss":658,"Ġad":659,"aw":660,"Ġnot":661,"ence":662,"ull":663,"ade":664,"ated":665,"Ġdis":666,"ĠFriday":667,"arter":668,"ational":669,"ous":670,"ict":671,"ount":672,"vest":673,"ood":674,"Ġone":675,"ĠSh":676,"eop":677,"ited":678,"ock":679,"earch":680,"ash":681,"Ġagainst":682,"icros":683,"ork":684,"ort":685,";/":686,"Ġthan":687,"Ġapp":688,"etw":689,"eople":690,"Ġinto":691,"OR":692,"ester":693,"ican":694,"urn":695,"Ġus":696,"oin":697,"gh":698,"ason":699,"Ġweek":700,"Ġlast":701,"ound":702,"oy":703,"Ġacc":704,"esterday":705,"ush":706,"Ġwho":707,"orm":708,"ĠAn":709,"ven":710,"Ġyesterday":711,"icrosoft":712,"Ġabout":713,"Ġinc":714,"Ġar":715,"Ġplay":716,"als":717,"ĠCor":718,"Ġcr":719,"ĠInd":720,"her":721,"eb":722,"man":723,"ĠSp":724,"roup":725,"Ġwere":726,"ib":727,"Ġthey":728,"ĠCom":729,"Ġann":730,"Ġoffic":731,"Ġall":732,"land":733,"overn":734,"Ġatt":735,"ware":736,"ina":737,"oss":738,"Ġbeen":739,"ext":740,"Ġear":741,"ĠIs":742,"pl":743,"ĠIntern":744,"Ġ&":745,"Ġim":746,"ition":747,"ey":748,"Ġworld":749,"reat":750,"Ġor":751,"vel":752,"ocks":753,"its":754,"Ġ4":755,"Ġman":756,"ical":757,"yst":758,"Ġhigh":759,"Ġmillion":760,"uct":761,"ang":762,"ll":763,"ton":764,"Ġhad":765,"eat":766,"Ġstr":767,"ird":768,"Ġmark":769,"Ġkill":770,"ced":771,"eral":772,"ĠAs":773,"Ġthree":774,"ind":775,"ĠCorp":776,"overnment":777,"AN":778,"onth":779,"ral":780,"tle":781,"ĠLe":782,"Ġret":783,"Qu":784,"Ġbl":785,"ook":786,"ose":787,"ower":788,"ased":789,"cent":790,"Ġ6":791,"ise":792,"hes":793,"ilit":794,"uss":795,"ting":796,"ĠPro":797,"gr":798,"ĠSund":799,"ected":800,"line":801,"urity":802,"ĠAmer":803,"Ġofficial":804,"AS":805,"ĠSunday":806,"ĠRe":807,"ines":808,"Ġwar":809,"Ġdec":810,"urop":811,"Ġteam":812,"Ġwould":813,"ok":814,"urope":815,"Ġend":816,"Ġback":817,"az":818,"ating":819,"Ġoil":820,"ĠUnited":821,"ix":822,"Ġcould":823,"ove":824,"olog":825,"able":826,"Ġserv":827,"ĠSat":828,"Ġannoun":829,"Ġdef":830,"Ġsl":831,"Ġfour":832,"ely":833,"Ġsecond":834,"FP":835,"ports":836,"Ġbu":837,"Ġgovernment":838,"Ġset":839,"Ġfl":840,"ph":841,"ugh":842,"ox":843,"ics":844,"Ġpol":845,"Ġyears":846,"Ġwhich":847,"ĠEx":848,"ons":849,"Ġmak":850,"oftware":851,"ales":852,"Ġcons":853,"ĠEn":854,"iness":855,"IN":856,"ents":857,"Ġsup":858,"ĠNE":859,"ĠReuters":860,"ĠEurope":861,"Ġmonth":862,"Ġpeople":863,"Ġtoday":864,"usiness":865,"Ġco":866,"ron":867,"ĠĠ":868,"ĠMicrosoft":869,"Ġind":870,"Ġplan":871,"ww":872,"ows":873,"orld":874,"inis":875,"Ġelect":876,"ĠPresident":877,"ubl":878,"Ġdes":879,"tt":880,"pr":881,"Ġprices":882,"air":883,"echn":884,"ĠAr":885,"Ġseason":886,"Ġpercent":887,"Ġ5":888,"Ġwhen":889,"ĠNEW":890,"ah":891,"ital":892,"hip":893,"ins":894,"Ġdown":895,"ier":896,"Ġnext":897,"enc":898,"Ġsays":899,"Ġquarter":900,"Ġpart":901,"Ġme":902,"Ġpre":903,"uch":904,"urday":905,"ef":906,"ally":907,"Ġsur":908,"Ġtime":909,"les":910,"ystem":911,"Ġgo":912,"lp":913,"ĠSaturday":914,"ement":915,"atch":916,"Ġnight":917,"Ġwork":918,"ings":919,"Ġreg":920,"ĠIt":921,"apan":922,"Ġcount":923,"Ġgame":924,"ief":925,"Ġ7":926,"Ġli":927,"ild":928,"Ġinvest":929,"Ġph":930,"ecut":931,"ĠCo":932,"Ġprod":933,"aj":934,"Ġthird":935,"ball":936,"US":937,"aun":938,"ĠBl":939,"ists":940,"onom":941,"ged":942,"ORK":943,"ĠBrit":944,"Ġbec":945,"inister":946,"uring":947,"ĠYORK":948,"echnolog":949,"Ġmarket":950,"Ġrecord":951,"Ġcap":952,"under":953,"Ġmay":954,"pt":955,"Ġne":956,"Ġvict":957,"eal":958,"orn":959,"Ġsoftware":960,"ran":961,"form":962,"cess":963,"omb":964,"ms":965,"Ġmilit":966,"ied":967,"ough":968,"Ġprof":969,"ustral":970,"ult":971,"Ġcan":972,"ision":973,"err":974,"Ġhelp":975,"rael":976,"Ġ10":977,"=\"":978,"ĠAf":979,"ars":980,"ames":981,"ĠFor":982,"ĠPl":983,"ĠWorld":984,"ĠOn":985,"ger":986,"oot":987,"ĠInternet":988,"Ġrele":989,"Ġopen":990,"Ġ2004":991,"ourt":992,"less":993,"ner":994,"Ġannounced":995,"els":996,"ned":997,"Ġbusiness":998,"uter":999,"lear":1000,"eld":1001,"ĠAl":1002,"Ġec":1003,"Ġconf":1004,"app":1005,"ĠJapan":1006,"ported":1007,"use":1008,"Ġgroup":1009,"Ġagre":1010,"ĠAir":1011,"000":1012,"Ġsome":1013,"Ġrun":1014,"Ġdeal":1015,"Ġbig":1016,"Ġlarg":1017,"ĠRes":1018,"urr":1019,"Quote":1020,"Ġbillion":1021,"Ġdo":1022,"ath":1023,"outh":1024,"Ġtop":1025,"ones":1026,"ands":1027,"rough":1028,"istan":1029,"ble":1030,"Ġcall":1031,"led":1032,"ica":1033,"Ġsecurity":1034,"rac":1035,"ĠChina":1036,"Ġtake":1037,"Ġmed":1038,"Ġmost":1039,"ares":1040,"io":1041,"ĠCon":1042,"ĠCl":1043,"inu":1044,"eep":1045,"year":1046,"ious":1047,"een":1048,"Ġpresident":1049,"Ġso":1050,"ĠJo":1051,"Ġins":1052,"Ġsay":1053,"Ġcar":1054,"Ġtarg":1055,"ces":1056,"Ġam":1057,"Ġtal":1058,"Ġeconom":1059,"RE":1060,"echnology":1061,"ague":1062,"Ġstart":1063,"ince":1064,"ĠAustral":1065,"ert":1066,"Ġnear":1067,"ĠPal":1068,"ĠRuss":1069,"Ġother":1070,"ward":1071,"Ġinter":1072,"ĠSec":1073,"Ġgrow":1074,"Ġvictory":1075,"iam":1076,"Ġrem":1077,"Ġkilled":1078,"Ġair":1079,"Ġday":1080,"Ġtri":1081,"Ġunder":1082,"Ġcomm":1083,"aim":1084,"gle":1085,"acks":1086,"ony":1087,"ives":1088,"Ġofficials":1089,"Ġsign":1090,"ĠBush":1091,"ajor":1092,"ĠFl":1093,"ield":1094,"round":1095,"ual":1096,"Ġreported":1097,"ures":1098,"riv":1099,"Ġbo":1100,"Ġsales":1101,"co":1102,"ampions":1103,"St":1104,"vent":1105,"ept":1106,"anad":1107,"ER":1108,"etwork":1109,"ants":1110,"Ġwe":1111,"ĠAt":1112,"other":1113,"orth":1114,"ĠIsrael":1115,"ĠEuropean":1116,"lud":1117,"Ġlaun":1118,"rug":1119,"lymp":1120,"ING":1121,"ĠCup":1122,"Ġhead":1123,"Ġoffer":1124,"ĠOp":1125,"Ġcut":1126,"inian":1127,"ient":1128,"velop":1129,"Ġ\"":1130,"Ġplans":1131,"Ġoper":1132,"alif":1133,"nings":1134,"ool":1135,"Ġcountry":1136,"rov":1137,"ĠNo":1138,"Ġtarget":1139,"Ġjust":1140,"ĠPh":1141,"ities":1142,"Ġprov":1143,"ling":1144,"ĠMar":1145,"fore":1146,"ĠComm":1147,"Ġget":1148,"way":1149,"ops":1150,"Ġ19":1151,"Ġbefore":1152,"BM":1153,"Ġhome":1154,"Ġdem":1155,"Ġbuy":1156,"Ġmanag":1157,"usp":1158,"ĠOlymp":1159,"gy":1160,"gan":1161,"ency":1162,"estinian":1163,"ederal":1164,"usic":1165,"ĠRed":1166,"Ġlaw":1167,"gest":1168,"ĠSer":1169,"ck":1170,"ium":1171,"ĠAmerican":1172,"Ġ8":1173,"Ġshow":1174,"oogle":1175,"Ġser":1176,"ember":1177,"Ġimp":1178,"Ġass":1179,"ĠStates":1180,"cer":1181,"ording":1182,"ission":1183,"ns":1184,"ĠAd":1185,"Ġbro":1186,"DA":1187,"ĠMinister":1188,"ange":1189,"Ġcharg":1190,"su":1191,"ax":1192,"ĠJohn":1193,"Ġno":1194,"Ġtak":1195,"ink":1196,";...":1197,"Ġlong":1198,"Ġreport":1199,"Ġjob":1200,";...&":1201,"Ġsystem":1202,"AFP":1203,"Ġact":1204,"ĠYork":1205,"ury":1206,"head":1207,"Ġnews":1208,"Ġformer":1209,"\"&":1210,"iant":1211,"Ġtra":1212,"ington":1213,"obile":1214,"to":1215,"Ġhost":1216,"icker":1217,"Ġfinal":1218,"TON":1219,"Ġkn":1220,"Ġbid":1221,"Ġyou":1222,"anies":1223,"Ġtro":1224,"ĠEng":1225,"Ġsu":1226,"Ġbr":1227,"med":1228,"Ġinclud":1229,"Ġwon":1230,"ai":1231,"ĠZ":1232,"thern":1233,"reak":1234,"Ġrel":1235,"ata":1236,"ech":1237,"AR":1238,".,":1239,"ump":1240,"Ġbank":1241,"Ġleast":1242,"AL":1243,"ese":1244,"Ġtechnology":1245,"ĠBritish":1246,"Ġfive":1247,"etween":1248,"ipp":1249,"raw":1250,"Ġmade":1251,"enn":1252,"ular":1253,"ause":1254,"fo":1255,"Ġpoin":1256,"ĠApp":1257,"Ġhim":1258,"Ġpost":1259,"Ġmajor":1260,"Ġindust":1261,"ĠPalestinian":1262,"ense":1263,"ublic":1264,"ending":1265,"Ġhit":1266,"Ġmake":1267,"Ġdevelop":1268,"ched":1269,"ĠProf":1270,"Ġher":1271,"Ġbomb":1272,"Ġmaker":1273,"Ġbetween":1274,"ady":1275,"Ġ9":1276,"Ġsw":1277,"ik":1278,"Ġexecut":1279,"Ġsm":1280,"Ġchief":1281,"Ġlat":1282,"erm":1283,"Ġeff":1284,"ollar":1285,"Ġlargest":1286,"Ġincre":1287,"error":1288,"Ġthem":1289,"Ġduring":1290,"ears":1291,"iew":1292,"Ġprogr":1293,"Ġdisc":1294,"ising":1295,"Ġcompanies":1296,"Ġprofit":1297,"ised":1298,"Ġtalks":1299,"ards":1300,"Ġif":1301,"//":1302,"ĠWith":1303,"Ġreb":1304,"Ġclaim":1305,"ĠIraqi":1306,"ley":1307,"ouse":1308,"66":1309,"ĠIndia":1310,"://":1311,"ttp":1312,"Ġthrough":1313,"rew":1314,"ĠWeb":1315,"Ġaccording":1316,"Ġwhat":1317,"ots":1318,"http":1319,"Ġtest":1320,"ful":1321,"Ġhop":1322,"Ġpay":1323,"fer":1324,"Ġext":1325,"Ġadd":1326,"ĠComp":1327,"Ġgl":1328,"ĠCol":1329,"Ġservice":1330,"ains":1331,"rem":1332,"ĠOct":1333,"Ġbat":1334,"Ġra":1335,"ale":1336,"gin":1337,"Ġanother":1338,"eeks":1339,"ered":1340,"EN":1341,"ireless":1342,"ivers":1343,"ĠSc":1344,"Ġsusp":1345,"Ġnow":1346,"Ġow":1347,"ĠCanad":1348,"Ġcoach":1349,"alf":1350,"ages":1351,"Ġloss":1352,"Ġleader":1353,"uclear":1354,"ĠOff":1355,"IS":1356,"www":1357,"ty":1358,"Ġexpected":1359,"ract":1360,"Ġintern":1361,"rup":1362,"Ġaut":1363,"uction":1364,"ĠLeague":1365,"ĠSouth":1366,"Ġsix":1367,"Ġgiant":1368,"Ġfil":1369,"af":1370,"ution":1371,"owing":1372,"Ġstri":1373,"ĠUp":1374,"Ġsearch":1375,"Ġinj":1376,"ility":1377,"Ġmeet":1378,"eneral":1379,"Ġexpl":1380,"ĠTr":1381,"used":1382,"ects":1383,"ications":1384,"ĠAFP":1385,"Ġtele":1386,"ĠDe":1387,"Ġproduc":1388,"Ġleft":1389,"Ġpe":1390,"ife":1391,"Ġ20":1392,"info":1393,"In":1394,"ticker":1395,"erry":1396,"reuters":1397,"REF":1398,"ĠHREF":1399,"akistan":1400,"ĠSept":1401,"Ġstate":1402,"Ġattack":1403,"'t":1404,"ĠOpen":1405,"Ġcost":1406,"ured":1407,"eed":1408,"Ġpower":1409,"son":1410,"ashington":1411,"Ġway":1412,"Ġthreat":1413,"Ġsub":1414,"ĠBe":1415,"Ġsince":1416,"ret":1417,"Ġdel":1418,"ĠWh":1419,"pos":1420,"Ġpass":1421,"Ġgu":1422,"back":1423,"Ġcourt":1424,"50":1425,"Ġmiss":1426,"Ġinf":1427,"ĠSe":1428,"Ġstill":1429,"very":1430,"Ġmove":1431,"ading":1432,"Ġprot":1433,"Ġriv":1434,"Ġwhile":1435,"bers":1436,"Ġindustry":1437,"Ġmov":1438,"ights":1439,"Ġearly":1440,"Ġcamp":1441,"Ġsell":1442,"ghan":1443,"Ġpolice":1444,"Ġbeing":1445,"Ġstrong":1446,"mb":1447,"Ġant":1448,"Ġfound":1449,"ĠAg":1450,"ments":1451,"Ġamp":1452,"str":1453,"uel":1454,"Ġ11":1455,"asp":1456,"Ch":1457,"arm":1458,"ĠX":1459,"vestor":1460,"Ġput":1461,"down":1462,"ĠInternational":1463,"min":1464,"ĠPrime":1465,"Ġreturn":1466,"Ġdead":1467,"Ġany":1468,"Ġshare":1469,"ĠAra":1470,"ĠAss":1471,"off":1472,"Ġmusic":1473,"ism":1474,"Ġdeb":1475,"Ġprogram":1476,"ne":1477,"ĠOil":1478,"ĠGroup":1479,"tel":1480,"EL":1481,"ress":1482,"racle":1483,"ries":1484,"ison":1485,"Ġagreed":1486,"be":1487,"Ġ'":1488,"obal":1489,"date":1490,"iol":1491,"ĠUN":1492,"par":1493,"Ġmilitary":1494,"Ġcent":1495,"rupt":1496,"aza":1497,"CO":1498,"ĠGoogle":1499,"New":1500,"ĠAfter":1501,"ĠKore":1502,"ench":1503,"Ġlook":1504,"ĠSox":1505,"Ġmonths":1506,"ators":1507,"ĠNorth":1508,"ĠBank":1509,"ator":1510,"Ġcol":1511,"Ġelection":1512,"INGTON":1513,"Ġdays":1514,"Ġrul":1515,"ĠChampions":1516,"oon":1517,"ys":1518,"uk":1519,"AT":1520,"ves":1521,"ches":1522,"Ġi":1523,"full":1524,"stocks":1525,"idn":1526,"Full":1527,"Ġnuclear":1528,"quick":1529,"ific":1530,"Ġgrowth":1531,"Ġcomputer":1532,"Ġ...":1533,"ĠWind":1534,"Ġpar":1535,"ource":1536,"quote":1537,"ible":1538,"investor":1539,"=/":1540,"ross":1541,"aspx":1542,"fullquote":1543,"FullQuote":1544,"quickinfo":1545,"ĠAb":1546,"iver":1547,"Ġonly":1548,"oci":1549,"ĠPC":1550,"Ġeven":1551,"Ġbecause":1552,"Ġclos":1553,"ASH":1554,"Ġterror":1555,"reet":1556,"ises":1557,"ĠMan":1558,"ĠBr":1559,"Ġsold":1560,"Ġmin":1561,"ĠHe":1562,"Ġ12":1563,"Ġdrug":1564,"Ġrest":1565,"erson":1566,"ĠWill":1567,"tain":1568,"ĠDav":1569,"oth":1570,"ĠGre":1571,"ips":1572,"urg":1573,"ootball":1574,"irect":1575,"ĠOlympic":1576,"put":1577,"ĠAT":1578,"urrican":1579,"Ġnum":1580,"Ġmobile":1581,"ĠAfghan":1582,"The":1583,"sp":1584,"Ġhold":1585,"Ġonline":1586,"ored":1587,"ĠState":1588,"rest":1589,"iers":1590,"ider":1591,"ustom":1592,"Ġround":1593,"ĠCar":1594,"ĠCalif":1595,"int":1596,"ĠAustralia":1597,"ASHINGTON":1598,"my":1599,"Ġleg":1600,"Ġincluding":1601,"ĠAnd":1602,"Ġstud":1603,"Ġphone":1604,"pite":1605,"ĠWindows":1606,"ĠBy":1607,"OS":1608,"Soft":1609,"Ġbeat":1610,"Ġfoll":1611,"Ġservices":1612,"Ġbel":1613,"ĠWASHINGTON":1614,"Ġresearch":1615,"ude":1616,"ĠAfr":1617,"Ġthere":1618,"ĠEngland":1619,"leg":1620,"red":1621,"Ġfall":1622,"let":1623,"ĠBag":1624,"Ġrev":1625,"amil":1626,"ative":1627,"hd":1628,"Ġspec":1629,"chool":1630,"Ġago":1631,"ĠPakistan":1632,"Ġshould":1633,"ĠWar":1634,"Ġplayers":1635,"cl":1636,"raft":1637,"ners":1638,"Ġhigher":1639,"Microsoft":1640,"Ġconsum":1641,"enter":1642,"ater":1643,"Ġjoin":1644,"ĠOr":1645,"ĠBut":1646,"ĠFall":1647,"Ġearnings":1648,"Ġhand":1649,"Ġspace":1650,"Ġlatest":1651,"Ġkey":1652,"Ġface":1653,"ĠMich":1654,"hel":1655,"uck":1656,"Ġlike":1657,"res":1658,"ene":1659,"hdad":1660,"Ġcity":1661,"ĠNational":1662,"ES":1663,"Ġreleased":1664,"based":1665,"Ġadv":1666,"eopleSoft":1667,"Ġpoints":1668,"Ġretail":1669,"ida":1670,"Ġfirm":1671,"Ġbiggest":1672,"Ġmany":1673,"Ġkeep":1674,"ideo":1675,"Ġnation":1676,"Ġbar":1677,"Ġrose":1678,"ĠIBM":1679,"ĠWashington":1680,"Ġmem":1681,"ĠWest":1682,"Ġfight":1683,"Ġstock":1684,"AG":1685,"ores":1686,"Ġfut":1687,"ĠSan":1688,"Ġdata":1689,"ĠGaza":1690,"Ġshares":1691,"oston":1692,"Ġcompet":1693,"imes":1694,"Ġmuch":1695,"Ġneed":1696,"Ġturn":1697,"quarter":1698,"Ġtit":1699,"Ġgames":1700,"ott":1701,"iting":1702,"Ġpublic":1703,"Ġacqu":1704,"ĠBaghdad":1705,"lin":1706,"ĠIsraeli":1707,"Ġviol":1708,"ike":1709,"Ġfree":1710,"ize":1711,"Ġfell":1712,"Ġref":1713,"ĠNetwork":1714,"Ġ2005":1715,"Ġdou":1716,"udan":1717,"ior":1718,"ĠAug":1719,"Ġtroops":1720,"Ġrecent":1721,"der":1722,"ians":1723,"BA":1724,"inux":1725,"36":1726,"ĠResearch":1727,"Ġche":1728,"Ġpeace":1729,"Ġstocks":1730,";&":1731,"ĠTe":1732,"ply":1733,"Ġcustom":1734,"OND":1735,"Ġvers":1736,"Ġgold":1737,"uts":1738,"ĠDec":1739,"10":1740,"aul":1741,"ended":1742,"ancial":1743,"Ġusers":1744,"Ġfail":1745,"ĠSup":1746,"ĠIran":1747,"ĠBo":1748,"Ġheld":1749,"Ġpast":1750,"Ġvis":1751,"Ġav":1752,"osition":1753,"ats":1754,"oods":1755,"so":1756,"Ġsuc":1757,"Ġwom":1758,"Ġfourth":1759,"eng":1760,"Ġinternational":1761,"Ġpolit":1762,"ĠAll":1763,"aign":1764,"ĠMc":1765,"ĠNews":1766,"ONDON":1767,"ĠRussian":1768,"AM":1769,"ĠApple":1770,"igital":1771,"ĠDar":1772,"hor":1773,"istr":1774,"Ġahead":1775,"Ġcontract":1776,"ĠBoston":1777,"ĠLONDON":1778,"Ġregion":1779,"Ġline":1780,"iving":1781,"ized":1782,"Up":1783,"Ġcontinu":1784,"Ġfac":1785,"Ġdev":1786,"ASA":1787,"rel":1788,"elt":1789,"Ġdemand":1790,"Ġord":1791,"ĠAmerica":1792,"Ġdirect":1793,"Ġtrade":1794,"Ġrelease":1795,"Ġlaunch":1796,"Ġwhere":1797,"rol":1798,"Ġleaders":1799,"rib":1800,"Ġprice":1801,"Ġcor":1802,"Ġeconomy":1803,"pe":1804,"Ġhom":1805,"ĠGu":1806,"ĠEar":1807,"Ġeng":1808,"ĠĠĠ":1809,"mail":1810,"Ġexecutive":1811,"ases":1812,"loy":1813,"isco":1814,"iger":1815,"ĠPress":1816,"Ġweeks":1817,"ĠSun":1818,"ĠBar":1819,"Ġstand":1820,"Ġred":1821,"opp":1822,"oney":1823,"ĠOracle":1824,"Ġhalf":1825,"ĠRussia":1826,"Ġforces":1827,"ĠLinux":1828,"Ġposs":1829,"ĠTo":1830,"Ġhow":1831,"Ġprocess":1832,"Ġsupport":1833,"Ġreports":1834,"Ġban":1835,"Ġgr":1836,"ober":1837,"aker":1838,"Ġ15":1839,"Ġ18":1840,"ĠQ":1841,"ĠSw":1842,"fur":1843,"Ġpresidential":1844,"Ġfederal":1845,"Ġuse":1846,"Ġconcer":1847,"Ġpress":1848,"ject":1849,"ĠStreet":1850,"ĠNov":1851,"Ġeconomic":1852,"EO":1853,"Ġenter":1854,"ĠAssoci":1855,"itch":1856,"ham":1857,"ĠFin":1858,"EC":1859,"erve":1860,"ends":1861,"Ġbet":1862,"Ġboost":1863,"ĠQu":1864,"ees":1865,"Ġform":1866,"ientists":1867,"eor":1868,"fat":1869,"ĠBu":1870,"Ġmain":1871,"Ġhist":1872,"sh":1873,"Ġtook":1874,"lo":1875,"urricane":1876,"hold":1877,"Ġemp":1878,"ĠGr":1879,"ĠMay":1880,"Ġright":1881,"ĠSecurity":1882,"orida":1883,"ided":1884,"ask":1885,"Ġlow":1886,"elf":1887,"Ġstra":1888,"Ġlower":1889,"Ġev":1890,"ults":1891,"Ġrival":1892,"Ġnumber":1893,"Ġdollar":1894,"Ġtitle":1895,"lim":1896,"Ġopp":1897,"Ġyour":1898,"ĠIndian":1899,"ĠFrench":1900,"Ġinvestig":1901,"Ġtry":1902,"atic":1903,"Ġnearly":1904,"riz":1905,"ying":1906,"ĠAc":1907,"ĠUnion":1908,"Ġdeath":1909,"Ġmen":1910,"Ġjobs":1911,"Ġhard":1912,"Ġcalled":1913,"Ġrece":1914,"veil":1915,"ĠOut":1916,"ought":1917,"ĠMot":1918,"Ġinvestors":1919,"ĠEd":1920,"lines":1921,"ĠDis":1922,"key":1923,"Ġseries":1924,"alt":1925,"ness":1926,"ann":1927,"Ġinterest":1928,"pped":1929,"Ġseven":1930,"Ġused":1931,"BC":1932,"Update":1933,"ĠSudan":1934,"Ġfind":1935,"ĠPhil":1936,"ĠWall":1937,"Ġaim":1938,"IT":1939,"ĠServ":1940,"ĠKorea":1941,"ĠCr":1942,"ĠHigh":1943,"ĠMin":1944,"ides":1945,"ĠPeopleSoft":1946,"ills":1947,"unications":1948,"ĠItal":1949,"Ġsever":1950,"ĠDep":1951,"Ġclose":1952,"Ġaround":1953,"Ġinv":1954,"Ġbuild":1955,"TO":1956,"anke":1957,"Ġfund":1958,"ĠOne":1959,"ades":1960,"ĠIntel":1961,"aring":1962,"Ġ14":1963,"IC":1964,"aid":1965,"Ġdri":1966,"ired":1967,"orks":1968,"Ġattacks":1969,"Ġpop":1970,"ael":1971,"ĠCity":1972,"Ġsent":1973,"ging":1974,"ĠElect":1975,"Ġglobal":1976,"idd":1977,"Ġworkers":1978,"ĠDem":1979,"mit":1980,"ams":1981,"Ġcampaign":1982,"ĠAng":1983,"ankees":1984,"br":1985,"Ġnetwork":1986,"Ġkilling":1987,"Ġlate":1988,"ĠMark":1989,"ened":1990,"ĠSays":1991,"Ġshort":1992,"cy":1993,"Ġcare":1994,"ĠSte":1995,"udge":1996,"ĠPar":1997,"ĠFlorida":1998,"Ġlit":1999,"akes":2000,"ĠDarfur":2001,"Ġquest":2002,"rod":2003,"iff":2004,"Ġmight":2005,"uj":2006,"15":2007,"ĠSeptember":2008,"ergy":2009,"ĠUK":2010,"Ġschool":2011,"Ġdet":2012,"idence":2013,"per":2014,"Ġca":2015,"abor":2016,"Ġsmall":2017,"ĠGame":2018,"Ġsuccess":2019,"att":2020,"adr":2021,"ĠOctober":2022,"Ġmod":2023,"ung":2024,"Ġ13":2025,"Ġdespite":2026,"Ġcase":2027,"Ġ30":2028,"ĠAustralian":2029,"inals":2030,"Ġ16":2031,"Ġvideo":2032,"top":2033,"Ġprom":2034,"artment":2035,"aving":2036,"outhern":2037,"Ġbroad":2038,"ĠSl":2039,"ĠKerry":2040,"Ġleading":2041,"ij":2042,"Ġversion":2043,"Ġpat":2044,"Ġchamp":2045,"igned":2046,"ĠNot":2047,"ĠOver":2048,"Ġ17":2049,"ĠCommission":2050,"Ġremain":2051,"orthern":2052,"ensive":2053,"ĠFederal":2054,"Ġagreement":2055,"Ġalso":2056,"ait":2057,"amed":2058,"Ġfollowing":2059,"get":2060,"ker":2061,"itt":2062,"ites":2063,"uman":2064,"ĠRep":2065,"Ġanal":2066,"ances":2067,"Ġdom":2068,"ĠPlay":2069,"by":2070,"Ġtax":2071,"Ġhol":2072,"ĠSy":2073,"Ġarrest":2074,"ener":2075,"Ġbest":2076,"ĠJapanese":2077,"Ġtrans":2078,"eth":2079,"ugg":2080,"Ġstar":2081,"ished":2082,"Ġappl":2083,"Ġnational":2084,"Ġrise":2085,"Ġgood":2086,"uce":2087,"Ġed":2088,"Ġpropos":2089,"Ġproducts":2090,"ĠTV":2091,"ĠIv":2092,"Ġste":2093,"Ġcapital":2094,"ornia":2095,"Ġbreak":2096,"sc":2097,"ved":2098,"Ġshe":2099,"ĠCourt":2100,"Ġfore":2101,"ystems":2102,"Ġfootball":2103,"uro":2104,"ways":2105,"ler":2106,"OL":2107,"Ġcond":2108,"time":2109,"ĠGeor":2110,"ĠRec":2111,"ession":2112,"ĠBra":2113,"Ġeas":2114,"ute":2115,"ĠTwo":2116,"orts":2117,"Ġwhe":2118,"Ġboth":2119,"mber":2120,"rove":2121,"Ġfamil":2122,"Ġregul":2123,"imb":2124,"Ġbegin":2125,"Ġcre":2126,"ape":2127,"Ġaway":2128,"owed":2129,"ĠGl":2130,"Ġcustomers":2131,"Ġlik":2132,"Ġcurr":2133,"ads":2134,"Ġgive":2135,"ĠDef":2136,"aster":2137,"Ġsol":2138,"ovember":2139,"Ġtouch":2140,"Ġinst":2141,"ĠDes":2142,"Ġstep":2143,"),":2144,"ole":2145,"Ġperson":2146,"Ġminister":2147,"Ġwell":2148,"Ġouts":2149,"Ġdecision":2150,"ĠPol":2151,"Ġ:":2152,"ocr":2153,"Th":2154,"ĠArafat":2155,"Ġwireless":2156,"ney":2157,"Ġforec":2158,"ooks":2159,"Ġmar":2160,"aseball":2161,"Ġbattle":2162,"Ġmeeting":2163,"Ġrace":2164,"Ġfuture":2165,"ren":2166,"Ġhere":2167,"Ġsuch":2168,"Ġcharges":2169,"umb":2170,"Ġplayer":2171,"ĠSAN":2172,"ĠFir":2173,"thers":2174,"ĠFrance":2175,"Ġfinancial":2176,"Ġmanager":2177,"Ġdue":2178,"Ġpolitical":2179,"ĠAm":2180,"Ġresp":2181,"Ġapprov":2182,"ĠCanadian":2183,"erman":2184,"ont":2185,"Ġequ":2186,"iants":2187,"Ġcrit":2188,"Ġmatch":2189,"ĠHam":2190,"Ġdigital":2191,"ĠYankees":2192,"iversity":2193,"Ġemploy":2194,"Ġforeign":2195,"Ġur":2196,"uf":2197,"Ġchampion":2198,"Ġengine":2199,"ĠEU":2200,"RAN":2201,"TA":2202,"ĠNovember":2203,"Ġexper":2204,"inal":2205,"Ġpull":2206,"Ġscored":2207,"Ġbeh":2208,"ĠCEO":2209,"urt":2210,"rows":2211,"go":2212,"ĠTest":2213,"ĠCalifornia":2214,"Ġtold":2215,"ension":2216,"Ġdiv":2217,"Ġemb":2218,"inese":2219,"ĠBritain":2220,"ming":2221,"ago":2222,"MS":2223,"ern":2224,"ĠMichael":2225,"of":2226,"hens":2227,"Ġresults":2228,"acy":2229,"Ġlife":2230,"Ġproble":2231,"Ġloc":2232,"Ġcell":2233,"prise":2234,"ĠProfit":2235,"ĠWilliam":2236,"Is":2237,"TE":2238,"orning":2239,"ours":2240,"airman":2241,"oid":2242,"Ġmer":2243,"lam":2244,"Ġlist":2245,"Ġreven":2246,"ering":2247,"ĠProfile":2248,"Ġwhether":2249,"eg":2250,"Ġunveil":2251,"formation":2252,"Ġcosts":2253,"ston":2254,"aps":2255,"Pod":2256,"adio":2257,"ĠShar":2258,"ĠShares":2259,"ric":2260,"enal":2261,"Ġob":2262,"Ġissu":2263,"ĠWin":2264,"Ġchip":2265,"Ġsettle":2266,"alk":2267,"ĠTex":2268,"Ġevery":2269,"Ġauthor":2270,"ift":2271,"Ġfew":2272,"Ġtrial":2273,"Ġseveral":2274,"ĠQuote":2275,"ĠTO":2276,"view":2277,"estern":2278,"ĠBig":2279,"Ġest":2280,"ana":2281,"ential":2282,"Ġwithout":2283,"ody":2284,"Ġsite":2285,"most":2286,"Ġperform":2287,"Ġsaying":2288,"ĠNASA":2289,"Ġstraight":2290,"Ġlittle":2291,"ĠMore":2292,"Ġbecome":2293,"Ġ100":2294,"Ġchampions":2295,"ĠEl":2296,"Ġelections":2297,"ministr":2298,"ĠChampionship":2299,"rown":2300,"for":2301,"ett":2302,"Ġacross":2303,"etworks":2304,"ĠPat":2305,"ĠPost":2306,"era":2307,"idnapp":2308,"Ġexpect":2309,"Ġmaking":2310,"Ġlaunched":2311,"ĠMus":2312,"ĠSeries":2313,"Ġbankrupt":2314,"Ġtrad":2315,"Ġopt":2316,"IL":2317,"retary":2318,"Ġeight":2319,"Ġmedia":2320,"Ġbetter":2321,"ktop":2322,"ĠSch":2323,"osp":2324,"Ġrock":2325,"ermany":2326,"alth":2327,"Ġ0":2328,"Ġ25":2329,"Ġdoes":2330,"Ġwinning":2331,"Ġpolic":2332,"ĠMed":2333,"ĠPe":2334,"Ġagency":2335,"ĠAugust":2336,"ĠGeneral":2337,"icket":2338,"ĠCont":2339,"ID":2340,"Ġreach":2341,"Ġneg":2342,"Ġplace":2343,"ĠVir":2344,"Ġstrike":2345,"FL":2346,"aff":2347,"Ġincrease":2348,"isk":2349,"Sp":2350,"Ġgreat":2351,"change":2352,"ĠComputer":2353,"Ġtelev":2354,"look":2355,"Ġweekend":2356,"IBM":2357,"Ġsk":2358,"Ġown":2359,"rist":2360,"ared":2361,"Ġquarterly":2362,"avy":2363,"ahoo":2364,"ĠCanada":2365,"ĠIT":2366,"ane":2367,"ĠMa":2368,"\\\\":2369,"ues":2370,"ĠNet":2371,"ĠSing":2372,"Ġlost":2373,"akers":2374,"Ġwomen":2375,"the":2376,"Ġfire":2377,"iet":2378,"Ġwound":2379,"ection":2380,"Ġrunning":2381,"IA":2382,"Ġhistory":2383,"esc":2384,"Ġanalyst":2385,"lex":2386,"aper":2387,"vers":2388,"ĠAfghanistan":2389,"Ġpriv":2390,"ĠPer":2391,"ĠWireless":2392,"Ġhopes":2393,"ived":2394,"Ġcontrol":2395,"Ġusing":2396,"oint":2397,"ĠTexas":2398,"Ġchall":2399,"ode":2400,"Ġlikely":2401,"ached":2402,"Ġconsumer":2403,"asts":2404,"ĠSpace":2405,"ather":2406,"ĠSen":2407,"Ġclear":2408,"Ġtaking":2409,"Ġhostage":2410,"Ġanti":2411,"field":2412,"pected":2413,"ĠChinese":2414,"Ġmanagement":2415,"icans":2416,"urance":2417,"Ġ24":2418,"Ġhealth":2419,"Ġless":2420,"AC":2421,"Ġvote":2422,"Ġbelie":2423,"Ġcome":2424,"ousands":2425,"Ġsee":2426,"Ġstat":2427,"Ġwarned":2428,"lier":2429,"Ġfield":2430,"rip":2431,"itz":2432,"Ġmembers":2433,"Ġfans":2434,"iles":2435,"ĠAtt":2436,"ĠDepartment":2437,"ufact":2438,"Sh":2439,"Ġpoll":2440,"ondon":2441,"Ġsame":2442,"oti":2443,"ience":2444,"Ġsen":2445,"ament":2446,"Ġchild":2447,"reen":2448,"Ġattem":2449,"ona":2450,"ev":2451,"ories":2452,"ĠIslam":2453,"Ġshot":2454,"Ġjump":2455,"LE":2456,"adium":2457,"Ġdist":2458,"Ġamong":2459,"lant":2460,"Ġdr":2461,"Ġshowed":2462,"ĠiPod":2463,"Ġbarrel":2464,"Ġfeat":2465,"we":2466,"UN":2467,"Ġboard":2468,"Ġlawsu":2469,"Ġconfir":2470,"--":2471,"td":2472,"Ġmorning":2473,"Ġask":2474,"Ġsum":2475,"ganiz":2476,"Ġvir":2477,"Ġled":2478,"Ġaccused":2479,"Ġposted":2480,"Ġtouchdown":2481,"ĠWilliams":2482,"ule":2483,"Ġtoward":2484,"ĠDavid":2485,"HE":2486,"Ġve":2487,"Ġseek":2488,"Ġdid":2489,"ĠDel":2490,"ified":2491,"Ġfar":2492,"etro":2493,"ĠPart":2494,"ĠHol":2495,"ele":2496,"ĠMac":2497,"Ġoperating":2498,"ĠEast":2499,"ĠThis":2500,"Ġexplos":2501,"uses":2502,"Ġpo":2503,"ĠJe":2504,"cil":2505,"ĠBay":2506,"ication":2507,"Ġrates":2508,"ĠDemocr":2509,"Ind":2510,"Ġent":2511,"ĠTal":2512,"Ġdrop":2513,"Ġfull":2514,"Oil":2515,"ĠGermany":2516,"Ġshar":2517,"Bl":2518,"Ġclub":2519,"Ġbehind":2520,"leged":2521,"ĠHurricane":2522,"aking":2523,"Ġmedal":2524,"ĠChief":2525,"Ġamid":2526,"zil":2527,"ĠCong":2528,"Ġ21":2529,"Ġgoing":2530,"Ġfuel":2531,"Ġgas":2532,"Ġprison":2533,"itive":2534,"Ġclaims":2535,"Ġfoc":2536,"icago":2537,"set":2538,"ĠNations":2539,"amb":2540,"olution":2541,"Ġball":2542,"An":2543,"ready":2544,"ĠJust":2545,"ges":2546,"ĠRet":2547,"porate":2548,"Ġwins":2549,"ĠLondon":2550,"Ġmilitants":2551,"draw":2552,"Ġrate":2553,"Ġpossible":2554,"ĠTur":2555,"Ġrepl":2556,"Ġemer":2557,"Ġviolence":2558,"Ġmid":2559,"Ġaccess":2560,"Ġtakes":2561,"Ġtoo":2562,"ĠLead":2563,"Ġvisit":2564,"osing":2565,"ĠWe":2566,"ĠUniversity":2567,"que":2568,"ino":2569,"itions":2570,"ĠSearch":2571,"ĠBill":2572,"Ġaction":2573,"ĠPaul":2574,"ama":2575,"vey":2576,"Ġappear":2577,"ately":2578,"ĠMo":2579,"reas":2580,"ota":2581,"ĠJan":2582,"yo":2583,"ĠGold":2584,"raud":2585,"ENS":2586,"ined":2587,"Ġland":2588,"ĠAthens":2589,"band":2590,"Ġinformation":2591,"ĠChar":2592,"Ġactiv":2593,"cast":2594,"ĠLou":2595,"ĠMart":2596,"Ġsem":2597,"asser":2598,"Ġhuman":2599,"ening":2600,"ald":2601,"Ġwatch":2602,"Ġbring":2603,"Ġinfl":2604,"Ġbankruptcy":2605,"ouston":2606,"Ġvot":2607,"Ġchang":2608,"Ġsim":2609,"Ġcame":2610,"Ġcash":2611,"ĠFRAN":2612,"Ġphones":2613,"Ġel":2614,"Ġtrading":2615,"inc":2616,"Ġgot":2617,"ĠAfrica":2618,"Ġalmost":2619,"andid":2620,"ONT":2621,"Ġsigned":2622,"Ġbegan":2623,"Ġcrude":2624,"ourn":2625,"Ġscientists":2626,"BS":2627,"ĠGerman":2628,"ĠSm":2629,"ĠStocks":2630,"ouncil":2631,"Ġinjured":2632,"ĠChe":2633,"Ġvo":2634,"Ġdoub":2635,"ena":2636,"ĠHow":2637,"ources":2638,"ĠFed":2639,"Ġtakeover":2640,"ministration":2641,"Ġtool":2642,"run":2643,"ĠFranc":2644,"oes":2645,"ĠHouse":2646,"ĠLtd":2647,"Ġprofits":2648,"Ex":2649,"ivil":2650,"Ġpopular":2651,"Ġtelevision":2652,"Ġmess":2653,"Ġdoc":2654,"ption":2655,"Ġhelped":2656,"ĠFalluj":2657,"raph":2658,"Ġchange":2659,"Ġmass":2660,"Ġlevel":2661,"owl":2662,"Ġreal":2663,"rust":2664,"ĠChicago":2665,"Ġsoldiers":2666,"wan":2667,"ĠSony":2668,"ĠMuslim":2669,"Ġnine":2670,"6666":2671,"Ġcontin":2672,"Ġcarri":2673,"AD":2674,"Ġenergy":2675,"Ġconfer":2676,"Ġpush":2677,"Ġrequ":2678,"Ġalleged":2679,"oring":2680,"ĠRy":2681,"ĠJones":2682,"Ġsaf":2683,"ĠDeal":2684,"ĠHouston":2685,"ĠJu":2686,"wide":2687,"Ġold":2688,"apons":2689,"Ġsenior":2690,"ring":2691,"ĠHar":2692,"Ġoffering":2693,"VD":2694,"asing":2695,"Ġended":2696,"ĠSales":2697,"Ġthose":2698,"Ġpres":2699,"Ġdied":2700,"Ġjudge":2701,"ĠSecretary":2702,"Ġhot":2703,"ĠWhen":2704,"Ġintrod":2705,"Ġstudy":2706,"Ġsing":2707,"ece":2708,"Ġsoon":2709,"Ġ199":2710,"Ġmet":2711,"Ġcareer":2712,"Ġnegoti":2713,"UP":2714,"anks":2715,"Ġfur":2716,"icks":2717,"ĠArs":2718,"urch":2719,"Ġever":2720,"UR":2721,"ronics":2722,"Ġproduct":2723,"ream":2724,"Ġearlier":2725,"ĠAirways":2726,"Ġunt":2727,"ecutive":2728,"vious":2729,"aces":2730,"Ġunit":2731,"ĠSu":2732,"ĠRob":2733,"okes":2734,"Ġsource":2735,"151":2736,"Ġfact":2737,"ander":2738,"Ġproduction":2739,"gypt":2740,"Ġbill":2741,"Ġmoney":2742,"HENS":2743,"ĠMer":2744,"ĠDown":2745,"Ġparty":2746,"Ġnorthern":2747,"ĠAtlant":2748,"ealth":2749,"Ġheart":2750,"Ġalready":2751,"Ġcuts":2752,"eing":2753,"icide":2754,"Ġstorm":2755,"ĠGames":2756,"ĠSpain":2757,"ĠAfrican":2758,"Ġsouthern":2759,"aced":2760,"Ġkidnapp":2761,"anches":2762,"Ġopening":2763,"comm":2764,"Ġmanufact":2765,"yn":2766,"isc":2767,"Ġgain":2768,"utch":2769,"Ġrevenue":2770,"Ġannounce":2771,"Ġyet":2772,"ĠIndones":2773,"isis":2774,"Ġsuff":2775,"ĠCub":2776,"Ġpersonal":2777,"Ġpot":2778,"ĠSP":2779,"undred":2780,"press":2781,"Ġcapt":2782,"Ġgets":2783,"vert":2784,"Ġshut":2785,"ĠFRANC":2786,"Ġdraw":2787,"ety":2788,"ĠATHENS":2789,"Ġter":2790,"Ġple":2791,"ashed":2792,"Ġpubl":2793,"Ġmult":2794,"iron":2795,"ĠNext":2796,"Ġseem":2797,"Ġefforts":2798,"urd":2799,"Ġlet":2800,"ĠOlympics":2801,"ĠCons":2802,"Ġforce":2803,"Ġdefense":2804,"ĠOnline":2805,"Ġpitch":2806,"Ġinit":2807,"Ġmust":2808,"Ġperformance":2809,"YO":2810,"ym":2811,"ille":2812,"SE":2813,"enger":2814,"expected":2815,"ĠAmericans":2816,"ISCO":2817,"ĠService":2818,"ining":2819,"ĠTra":2820,"Ġcalls":2821,"asket":2822,"Ġconference":2823,"Ġfre":2824,"Ġfast":2825,"Ġmat":2826,"Ġsched":2827,"Ġrej":2828,"Ġaccount":2829,"Ġcountries":2830,"Ġgeneral":2831,"reme":2832,"ĠAssociation":2833,"ĠCle":2834,"ĠRo":2835,"ently":2836,"Ġconcerns":2837,"ĠFRANCISCO":2838,"Bush":2839,"Ġgave":2840,"utin":2841,"Ġweb":2842,"iance":2843,"Ġcorporate":2844,"unt":2845,"anced":2846,"ĠReal":2847,"resh":2848,"Google":2849,"unity":2850,"rial":2851,"ĠBlack":2852,"wood":2853,"Ġsug":2854,"ospital":2855,"ĠAN":2856,"une":2857,"Ġwithdraw":2858,"Ġforecast":2859,"ĠVirgin":2860,"ĠAst":2861,"Ġgrowing":2862,"ĠLouis":2863,"Ġsale":2864,"Ġfe":2865,"ĠReserve":2866,"ĠCommunications":2867,"rong":2868,"ya":2869,"Ġhours":2870,"Ġexpand":2871,"ĠSystems":2872,"ĠCH":2873,"Ġnet":2874,"okyo":2875,"Ġmakes":2876,"Ġoutside":2877,"KYO":2878,"Ġready":2879,"occer":2880,"ĠAngel":2881,"Ġrecover":2882,"Ġtrying":2883,"Ġconsider":2884,"Ġport":2885,"ĠIf":2886,"Ġcomputers":2887,"Ġtow":2888,"Ġmarkets":2889,"Ġcivil":2890,"ĠMars":2891,"Ġwithin":2892,"ĠHold":2893,"Ġyards":2894,"ually":2895,"Ġaid":2896,"Ġlegal":2897,"ĠTOKYO":2898,").":2899,"olf":2900,"ĠInter":2901,"No":2902,"Ġstake":2903,"Ġteams":2904,"Mart":2905,"ĠCouncil":2906,"Ġsn":2907,"Ġqualif":2908,"Ġenough":2909,"ĠAnn":2910,"China":2911,"Iraq":2912,"Ġconv":2913,"iddle":2914,"mir":2915,"14":2916,"Ġcandid":2917,"utes":2918,"Ġleague":2919,"Ġavail":2920,"Ġreached":2921,"Ġcontinue":2922,"ds":2923,"ris":2924,"Ġcoll":2925,"ĠMiss":2926,"ender":2927,"Ġaimed":2928,"aq":2929,"Ġden":2930,"Ġ23":2931,"bus":2932,"Ġothers":2933,"ayed":2934,"Ġstop":2935,"Ġunion":2936,"ically":2937,"ily":2938,"ĠKill":2939,"Canad":2940,"ertain":2941,"ĠNFL":2942,"Stocks":2943,"Israel":2944,"Ġuntil":2945,"Ġfile":2946,"Ġwrit":2947,"ĠLos":2948,"Ġlift":2949,"Ġarrested":2950,"ĠGeorge":2951,"Ġreve":2952,"Ġslow":2953,"Ġprepar":2954,"ĠAirlines":2955,"Ġairline":2956,"tor":2957,"Ġben":2958,"ront":2959,"Ġweapons":2960,"ĠBrazil":2961,"Ġlocal":2962,"Ġrally":2963,"Ġdefeat":2964,"ishing":2965,"Ġcharged":2966,"ĠEnd":2967,"rap":2968,"anchester":2969,"ulation":2970,"Ġanalysts":2971,"ault":2972,"inks":2973,"Ġcop":2974,"Ġblock":2975,"Ġsystems":2976,"ĠArab":2977,"ĠGrand":2978,"uary":2979,"ĠThey":2980,"Ġtaken":2981,"Ġrebels":2982,"For":2983,"SP":2984,"ĠMadr":2985,"Ġcompetition":2986,"Ġopposition":2987,"Ġquestion":2988,"12":2989,"orage":2990,"Ġcoun":2991,"rian":2992,"iami":2993,"Ġfailed":2994,"ĠAsia":2995,"Ġinsurg":2996,"Ġauthorities":2997,"FONT":2998,"enge":2999,"Ġeffort":3000,"asketball":3001,"Ġlo":3002,"Ġ22":3003,"iffer":3004,"Ġinvol":3005,"aud":3006,"lege":3007,"Ġcontinued":3008,"aled":3009,"Ġrep":3010,"Ġeach":3011,"Ġfurther":3012,"EM":3013,"Ġwants":3014,"Ġonce":3015,"ĠGiants":3016,"Ġspokes":3017,"Ġstarting":3018,"Ġchampionship":3019,"ĠBack":3020,"oung":3021,"Ġsuppl":3022,"CP":3023,"ĠTro":3024,"oto":3025,"iven":3026,"Ġdisput":3027,"Ġarriv":3028,"Ġsuper":3029,"ipped":3030,"Ġretailer":3031,"ĠChrist":3032,"uge":3033,"Ġprevious":3034,"Ġevent":3035,"using":3036,"ĠYasser":3037,"Ġsuggest":3038,"Ġeuro":3039,"Ġpract":3040,"mar":3041,"ĠAgain":3042,"Ġpos":3043,"ĠBAG":3044,"ĠMadrid":3045,"UL":3046,"held":3047,"Ġfiled":3048,"ĠWal":3049,"Ġdouble":3050,"ĠBusiness":3051,"ĠDVD":3052,"comp":3053,"Ġfinally":3054,"Ġcentral":3055,"ability":3056,"Ġfav":3057,"Ġoffice":3058,"Ġspecial":3059,"ĠIvan":3060,"DAD":3061,"icip":3062,"Ġthousands":3063,"Ġspending":3064,"ournal":3065,"HDAD":3066,"right":3067,"tered":3068,"Ġrebel":3069,"ails":3070,"Ġinvestment":3071,"Ġdownlo":3072,"Ġraised":3073,"ĠItalian":3074,"Ġdomin":3075,"Russ":3076,"Ġaff":3077,"ims":3078,"ĠBAGHDAD":3079,"han":3080,"ellite":3081,"phone":3082,"Re":3083,"bit":3084,"Ġsat":3085,"Ġlooking":3086,"ĠSet":3087,"ĠTHE":3088,"Ġstrugg":3089,"Ġpotential":3090,"cing":3091,"Ġside":3092,"Ġfresh":3093,"Ġhands":3094,"ĠMos":3095,"imate":3096,"Ġdesigned":3097,"Ġexecutives":3098,"IR":3099,"sue":3100,"Ġfig":3101,"ĠCent":3102,"Ġroll":3103,"mark":3104,"tal":3105,"ĠTit":3106,"Ġ27":3107,"Ġ2006":3108,"ĠAut":3109,"add":3110,"Ġgun":3111,"Ġquarterback":3112,"Ġoperations":3113,"ĠDavis":3114,"ollars":3115,"ple":3116,"ĠSoftware":3117,"ĠArmy":3118,"Ġinjury":3119,"ĠManchester":3120,"order":3121,"Ġseen":3122,"onds":3123,"Ġcrisis":3124,"Ġfamily":3125,"liam":3126,"nes":3127,"ĠNiger":3128,"ĠYahoo":3129,"News":3130,"ĠEarth":3131,"30":3132,"kins":3133,"ĠGreen":3134,"Ġcred":3135,"Ġpressure":3136,"Ġdrive":3137,"Ġpack":3138,"liament":3139,"rich":3140,"Ġpred":3141,"rovers":3142,"Ġdam":3143,"Ġey":3144,"ĠFrancisco":3145,"Ġhits":3146,"aded":3147,"ĠFirst":3148,"ĠMiami":3149,"Ġcoming":3150,"Ġenv":3151,"gers":3152,"Ġsize":3153,"Ġcenter":3154,"ĠBowl":3155,"ĠStadium":3156,"part":3157,"Ġ,":3158,"asters":3159,"ĠMe":3160,"ĠPrices":3161,"illeg":3162,"Ġground":3163,"ĠFrom":3164,"ĠEgypt":3165,"ounds":3166,"Ġ50":3167,"Ġmon":3168,"ural":3169,"Ġchips":3170,"okia":3171,"Ġfraud":3172,"ĠDon":3173,"Ġallow":3174,"Ġrisk":3175,"ĠInvest":3176,"undreds":3177,"ĠHel":3178,"Ġcomb":3179,"anked":3180,"Ġruling":3181,".'":3182,"Ġwent":3183,"acing":3184,"Ġrights":3185,"Ġchildren":3186,"lom":3187,"hest":3188,"Ġgener":3189,"ĠCoast":3190,"Ġtravel":3191,"FT":3192,"ĠTop":3193,"iding":3194,"Ġgains":3195,"Ġgetting":3196,"Ġpolicy":3197,"icted":3198,"obe":3199,"Ġinsurance":3200,"11":3201,"Ġdollars":3202,"ĠTech":3203,"ĠFormer":3204,"ico":3205,"Ġtrack":3206,"Ġlarge":3207,"ĠBro":3208,"ĠBel":3209,"unes":3210,"Ġdesktop":3211,"ĠXP":3212,"HL":3213,"Ġspeed":3214,"ipment":3215,"thlet":3216,"Ġsupply":3217,"aches":3218,"aves":3219,"Ġgoal":3220,"hib":3221,"Pal":3222,"men":3223,"DATE":3224,"post":3225,"arz":3226,"Ġthen":3227,"Ġdon":3228,"eck":3229,"ention":3230,"ĠPrem":3231,"tors":3232,"urities":3233,"irc":3234,"Ġval":3235,"Ġchairman":3236,"ĠThere":3237,"Ġtalk":3238,"aging":3239,"Ġspam":3240,"Ġcharge":3241,"rowser":3242,"Ġpil":3243,"ĠTor":3244,"aged":3245,"ĠArsenal":3246,"verage":3247,"Ġprotest":3248,"itor":3249,"oman":3250,"uced":3251,"elta":3252,"Ġpick":3253,"porters":3254,"ashes":3255,"ĠExchange":3256,"ĠWhite":3257,"opping":3258,"CC":3259,"ĠThat":3260,"Ġannual":3261,"Ġstrate":3262,"Ġproblems":3263,"Ġbenef":3264,"ĠJob":3265,"ells":3266,"Ġfighting":3267,"Ġtw":3268,"Ġwant":3269,"cept":3270,"Ġspot":3271,"ĠMal":3272,"Ġnever":3273,"Ġprime":3274,"Fr":3275,"month":3276,"roll":3277,"ĠPac":3278,"Ġbeg":3279,"ably":3280,"Ġworking":3281,"ĠBlair":3282,"elebr":3283,"Ġcanc":3284,"Ġstore":3285,"iber":3286,"ze":3287,"Ġilleg":3288,"Ġtour":3289,"ilt":3290,"Ġholiday":3291,"Com":3292,"Ġdriv":3293,"ĠVi":3294,"anger":3295,"Ġident":3296,"ĠCenter":3297,"urning":3298,"aiwan":3299,"icial":3300,"ĠAM":3301,"rief":3302,"Ġdiscuss":3303,"rize":3304,"ĠPower":3305,"ĠNow":3306,"Ġpowerful":3307,"icit":3308,"Ġ28":3309,"Ġprovide":3310,"Ġtreat":3311,"ĠPark":3312,"ctions":3313,"alled":3314,"Ġarmy":3315,"ĠTrade":3316,"Ġinvestigation":3317,"Ġtimes":3318,"Ġfired":3319,"ĠAcc":3320,"anish":3321,"ceed":3322,"osed":3323,"Ġvol":3324,"uff":3325,"me":3326,"arra":3327,"ĠIP":3328,"ula":3329,"oper":3330,"maker":3331,"ype":3332,"OM":3333,"Ġname":3334,"Ġpoint":3335,"itness":3336,"Ġfears":3337,"illing":3338,"ĠLaw":3339,"IP":3340,"game":3341,"hy":3342,"kra":3343,"Ġrivals":3344,"Ġrules":3345,"reland":3346,"Ġdisapp":3347,"Ġbusinesses":3348,"Ġattempt":3349,"ĠCap":3350,"illa":3351,"ploy":3352,"ĠTom":3353,"ĠCard":3354,"Ġselling":3355,"ukos":3356,"ĠTony":3357,"ĠPlan":3358,"500":3359,"Ph":3360,"ead":3361,"Ġsom":3362,"ailed":3363,"Ġplayoff":3364,"ronic":3365,"ĠPM":3366,"Ġprivate":3367,"ĠAngeles":3368,"Ġavailable":3369,"ĠTokyo":3370,"Ġexpectations":3371,"miss":3372,"ifth":3373,"NE":3374,"Ġheavy":3375,"Ġsurvey":3376,"Ġcour":3377,"ennis":3378,"Ġhope":3379,"Ġstores":3380,"ĠEc":3381,"ĠAsian":3382,"IM":3383,"ords":3384,"Ġplanned":3385,"Ġweak":3386,"Ġbaseball":3387,"Ġdro":3388,"Ġdiffer":3389,"ria":3390,"echnologies":3391,"ĠWins":3392,"merc":3393,"Ġconsumers":3394,"EU":3395,"ĠShe":3396,"Ġchance":3397,"ĠPalestinians":3398,"ference":3399,"ĠMil":3400,"ĠHew":3401,"ĠRyder":3402,"ruct":3403,"ini":3404,"Ġruns":3405,"Ġdevelopment":3406,"ĠIslamic":3407,"UPDATE":3408,"Ġradio":3409,"overed":3410,"actor":3411,"Ġimport":3412,"Ġknown":3413,"Ġorder":3414,"ĠTour":3415,"oming":3416,"ĠExpl":3417,"Ġconfirmed":3418,"ĠThree":3419,"Ġdecided":3420,"sw":3421,"Ġnamed":3422,"ĠDrug":3423,"ume":3424,"oreign":3425,"Ġworth":3426,";,":3427,"ĠTalks":3428,"asd":3429,"ackers":3430,"oys":3431,"ĠEnter":3432,"One":3433,"Ġcrow":3434,"ĠMusic":3435,"eattle":3436,"Ġblast":3437,"Ġflight":3438,"Ġasked":3439,"asdaq":3440,"Ġbody":3441,"ĠKen":3442,"ixed":3443,"Ġimprove":3444,"mo":3445,"ĠPay":3446,"Ġknow":3447,"Ġregulators":3448,"ĠPort":3449,"owell":3450,"Ġabove":3451,"Ġappeal":3452,"anium":3453,"Ġapproved":3454,"Ġwarning":3455,"Ġmissing":3456,"Ġunveiled":3457,"mercial":3458,"UK":3459,"egr":3460,"Ġhouse":3461,"ĠFire":3462,"awi":3463,"Ġfocus":3464,"Ġterm":3465,"Ġhospital":3466,"stit":3467,"MW":3468,"ction":3469,"Ġ26":3470,"atives":3471,"ope":3472,"Ġtourn":3473,"Ġprobe":3474,"Col":3475,"Ġmort":3476,"Ġgra":3477,"20":3478,"che":3479,"Ġsepar":3480,"hic":3481,"agu":3482,"Ġcurrent":3483,"ĠParis":3484,"uit":3485,"ained":3486,"vention":3487,"ĠAdv":3488,"Ġsharehold":3489,"Ġissue":3490,"illions":3491,"Ġprob":3492,"ĠProt":3493,"MC":3494,"ĠSur":3495,"term":3496,"uments":3497,"Ġshows":3498,"Ġcontrovers":3499,"Ġ40":3500,"rought":3501,"ushed":3502,"Ġview":3503,"Ġarea":3504,"ashmir":3505,"Ġcolor":3506,"NY":3507,"Ġrising":3508,"ĠExp":3509,"Ar":3510,"Japan":3511,"Ġleave":3512,"Ġspe":3513,"ĠAnt":3514,"Ġsuicide":3515,"ĠSharon":3516,"fl":3517,"Ġcelebr":3518,"Ġcaptain":3519,"ination":3520,"ĠVer":3521,"Un":3522,"Ġbird":3523,"ĠBuy":3524,"TS":3525,"ving":3526,"ĠStock":3527,"Ġacquis":3528,"ĠLaun":3529,"AGO":3530,"olph":3531,"Ġconn":3532,"Ġ2003":3533,"ĠDecember":3534,"Ġmerger":3535,"Ġcard":3536,"Ġthink":3537,"ively":3538,"itional":3539,"Ġdebt":3540,"Ġemployees":3541,"Ġsqu":3542,"Ġlight":3543,"Ġfirms":3544,"ĠMotor":3545,"alls":3546,"Ġlawsuit":3547,"ĠTeam":3548,"beat":3549,"ify":3550,"Ġadministration":3551,"Ġsuspected":3552,"Austral":3553,"Ġmag":3554,"Ġhapp":3555,"ĠMor":3556,"ĠIreland":3557,"ires":3558,"ganization":3559,".\"":3560,"Ġstay":3561,"istry":3562,"Ġincreased":3563,"ease":3564,"Ġposition":3565,"ĠStrip":3566,"ilities":3567,"ironment":3568,"kes":3569,"ĠRock":3570,"ĠLa":3571,"Ġcomplet":3572,"Ġgroups":3573,"Ġlater":3574,"bo":3575,"ĠMike":3576,"elph":3577,"Ġgiven":3578,"Ġturned":3579,"ĠCongress":3580,"Ġbad":3581,"Ġlink":3582,"ĠWork":3583,"ĠNBA":3584,"season":3585,"Ġserver":3586,"ĠBoeing":3587,"Ġdevices":3588,"pan":3589,"ĠForeign":3590,"Ġprop":3591,"andal":3592,"Ġnewsp":3593,"Intel":3594,"CBS":3595,"craft":3596,"Ġsites":3597,"Ġclaimed":3598,"Ġequipment":3599,"App":3600,"Brit":3601,"itors":3602,"ĠBomb":3603,"Ġgiving":3604,"ĠMont":3605,"Ġcloser":3606,"nesota":3607,"ocked":3608,"Ġeffect":3609,"Ġdeliver":3610,"ĠMex":3611,"Ġoffers":3612,"iplom":3613,"Ġmoved":3614,"ny":3615,"Ġlim":3616,"Ġroad":3617,"anted":3618,"ĠIts":3619,"ĠRich":3620,"ibility":3621,"etroit":3622,"Ġwater":3623,"ĠSo":3624,"ĠData":3625,"Ġalong":3626,"coming":3627,"Ġappar":3628,"Ġlosses":3629,"ĠSteve":3630,"Canadian":3631,"200":3632,"inger":3633,"ĠSeattle":3634,"Ġmission":3635,"ĠCan":3636,"uting":3637,"Red":3638,"bn":3639,"ten":3640,"iring":3641,"Ġspokesman":3642,"ĠDay":3643,"ĠKashmir":3644,"Ġupgr":3645,"Ġappro":3646,"Ġopened":3647,"ĠBE":3648,"ockey":3649,"Ġadded":3650,"Ġissues":3651,"ĠRod":3652,"sea":3653,"ĠFallujah":3654,"Ġtown":3655,"Ġoutlook":3656,"eather":3657,"Ġstation":3658,"Ġrow":3659,"ĠJohnson":3660,"Ġreceived":3661,"Ġdest":3662,"ĠUs":3663,"lywood":3664,"Ġunc":3665,"yc":3666,"ĠTime":3667,"Ġimprov":3668,"Ġurged":3669,"ilty":3670,"Ġpartners":3671,"elphia":3672,"HP":3673,"Ġforward":3674,"iracy":3675,"ĠRise":3676,"Ġcomes":3677,"Ġproject":3678,"ĠItaly":3679,"Ġcreate":3680,"ED":3681,"west":3682,"eric":3683,"Ġdidn":3684,"ĠTim":3685,"ĠMS":3686,"uries":3687,"eath":3688,"CA":3689,"cc":3690,"Ġthough":3691,"ĠField":3692,"Ġslight":3693,"Ġfront":3694,"ĠMy":3695,"ĠMinnesota":3696,"Ġdivision":3697,"ĠSingh":3698,"Ġstaff":3699,"Ġrole":3700,"orney":3701,"ford":3702,"lish":3703,"yle":3704,"Ġbased":3705,"ĠSil":3706,"ova":3707,"Ġavoid":3708,"Ġpurch":3709,"ĠIr":3710,"ĠPri":3711,"Ġmilitant":3712,"Ġapplications":3713,"ĠDemocratic":3714,"Ġbrowser":3715,"ĠForm":3716,"ĠDutch":3717,"lection":3718,"atory":3719,"uled":3720,"ĠIndust":3721,"Ġresearchers":3722,"Ġtournament":3723,"Factor":3724,"Ġcou":3725,"ĠAtlanta":3726,"NA":3727,"ĠIN":3728,"Ġcompl":3729,"Ġautom":3730,"kn":3731,"wa":3732,"ĠTaiwan":3733,"Ġwinter":3734,"new":3735,"verd":3736,"helsea":3737,"Ġwid":3738,"Ġpros":3739,"enez":3740,"ĠJanuary":3741,"Ġsingle":3742,"ĠBang":3743,"Ġpri":3744,"ĠSome":3745,"assic":3746,"Ġjoint":3747,"AK":3748,"oma":3749,"ĠMobile":3750,"ĠFootball":3751,"ĠDo":3752,"Ġcommercial":3753,"elling":3754,"Ġcarry":3755,"ĠGreece":3756,"ĠCharg":3757,"ajaf":3758,"Ġdrugs":3759,"Ġexperts":3760,"Ġwounded":3761,"ids":3762,"onto":3763,"ĠDetroit":3764,"ĠZeal":3765,"tainment":3766,"ĠWi":3767,"Ġstorage":3768,"ĠVal":3769,"ences":3770,"Ġdistrib":3771,"Ġnetworks":3772,"ĠJuly":3773,"25":3774,"igan":3775,"igns":3776,"Ġsigns":3777,"strong":3778,"Ġovers":3779,"ĠWoods":3780,"Ġquick":3781,"wards":3782,"Ġterrorism":3783,"ICAGO":3784,"ĠAstros":3785,"ps":3786,"read":3787,"Ġdecl":3788,"arzai":3789,"Ġfifth":3790,"ĠHait":3791,"Ġsex":3792,"Ġtight":3793,"ĠCHICAGO":3794,"ĠZealand":3795,"Ġbasketball":3796,"ĠShi":3797,"Ġfaces":3798,"ittee":3799,"pro":3800,"Ġsources":3801,"ĠMilit":3802,"iller":3803,"ellig":3804,"gage":3805,"stron":3806,"Ġmeas":3807,"Ġminutes":3808,"Ġcheck":3809,"ijing":3810,"Ġestim":3811,"ĠVirginia":3812,"GA":3813,"bed":3814,"vet":3815,"than":3816,"ĠLong":3817,"ager":3818,"Ġable":3819,"Ġplayed":3820,"play":3821,"ĠReport":3822,"Amer":3823,"Ġwild":3824,"Ġlosing":3825,"ĠLabor":3826,"ever":3827,"anel":3828,"ĠCisco":3829,"ĠDell":3830,"ĠHen":3831,"epend":3832,"Ġsurv":3833,"LAN":3834,"Ġrepr":3835,"ĠNear":3836,"Ġstreak":3837,"Ġruled":3838,"Ġton":3839,"unk":3840,"Ġserious":3841,"Ġevidence":3842,"Ġcritic":3843,"Ġvehic":3844,"Ġsouth":3845,"olina":3846,"ĠSol":3847,"ĠPre":3848,"ĠRoy":3849,"ĠYou":3850,"ĠDev":3851,"Ġinitial":3852,"inn":3853,"ĠGo":3854,"ĠDisney":3855,"ville":3856,"Ġproposed":3857,"Ġaud":3858,"atform":3859,"Ġmach":3860,"ĠReb":3861,"ĠTele":3862,"ĠMarket":3863,"mas":3864,"Ġoffensive":3865,"Ġincreasing":3866,"Af":3867,"Ġcam":3868,"ĠBob":3869,"riots":3870,"ival":3871,"ĠSpr":3872,"Ġblood":3873,"Ġstarted":3874,"Ġacquire":3875,"ĠMic":3876,"Ġclin":3877,"Ġprosecut":3878,"Ġmom":3879,"ĠTw":3880,"ĠNajaf":3881,"ĠIns":3882,"Ġalleg":3883,"Ġprotect":3884,"Ġforced":3885,"Ġplaying":3886,"lands":3887,"Ġwoman":3888,"eda":3889,"ĠToronto":3890,"Ġsan":3891,"Ġboss":3892,"oles":3893,"Ġren":3894,"Ġholding":3895,"ster":3896,"Ġdebate":3897,"ĠPolice":3898,"Ġaccounting":3899,"iot":3900,"ental":3901,"Ġadvert":3902,"Ġbuilding":3903,"Ġrocket":3904,"Ġstatement":3905,".\\":3906,"Al":3907,"ĠBrown":3908,"ĠHealth":3909,"istic":3910,"onduct":3911,"Ġofficer":3912,"Ġq":3913,"Ġlooks":3914,"ĠTechnology":3915,"Ġdeep":3916,"orrow":3917,"Ġfood":3918,"ĠDiv":3919,"Ġshoot":3920,"Ġwhose":3921,"udy":3922,"ĠYukos":3923,"ĠSuper":3924,"Ġfri":3925,"Ġinning":3926,"ada":3927,"adelphia":3928,"Ġnorth":3929,"acked":3930,"ĠBlue":3931,"Ġhomes":3932,"Ġhuge":3933,"ewart":3934,"angers":3935,"Ġdoesn":3936,"Ġseeking":3937,"FA":3938,"Fi":3939,"UT":3940,"uz":3941,"ĠFour":3942,"Ġcho":3943,"Ġart":3944,"ĠCompany":3945,"Ġsuccessful":3946,"Ġdebut":3947,"Ġreview":3948,"fox":3949,"Ġsit":3950,"Ġwestern":3951,"ĠSpanish":3952,"Ġsett":3953,"ĠKorean":3954,"irl":3955,"ĠRog":3956,"light":3957,"Ġaverage":3958,"Ġhundreds":3959,"Ġreform":3960,"ĠDeb":3961,"ALL":3962,"Ġthreatened":3963,"Ġguard":3964,"ĠAL":3965,"ĠPit":3966,"ĠBer":3967,"Ġbus":3968,"ĠMass":3969,"aeda":3970,"gent":3971,"net":3972,"Ġty":3973,"ĠUkra":3974,"Ġ29":3975,"Ġrejected":3976,"ari":3977,"Ġremains":3978,"Ġsuspended":3979,"Ġacquisition":3980,"Ġtem":3981,"icon":3982,"Ġbecame":3983,"ength":3984,"Ġsoccer":3985,"Ġcode":3986,"ighest":3987,"Ġleaving":3988,"Ġwinner":3989,"IE":3990,"hio":3991,"Ġour":3992,"ĠCount":3993,"Ġearth":3994,"ĠBeijing":3995,"Apple":3996,"ĠMasters":3997,"Ġbeating":3998,"dog":3999,"self":4000,"ulf":4001,"medi":4002,"Ġkidnapped":4003,"Oracle":4004,"come":4005,"ko":4006,"ati":4007,"assy":4008,"Ġparliament":4009,"Ġdropped":4010,"Ġvery":4011,"acec":4012,"urb":4013,"Ġoffered":4014,"ĠServer":4015,"Ġdevice":4016,"ĠIndonesia":4017,"ĠAlex":4018,"Ġcrash":4019,"Ġdispute":4020,"Iran":4021,"Ġwitness":4022,"ĠTreas":4023,"iders":4024,"ansas":4025,"Ġcleric":4026,"Ġreturned":4027,"ĠWarner":4028,"Ġcrowd":4029,"Ġrepres":4030,"Ġread":4031,"Ġreason":4032,"Ġfilm":4033,"Tunes":4034,"aming":4035,"Ġgen":4036,"augh":4037,"house":4038,"larg":4039,"Ġhaving":4040,"Ġnon":4041,"udd":4042,"ĠVo":4043,"ma":4044,"ranked":4045,"enture":4046,"Ġstage":4047,"Ġretire":4048,"Ġchallenge":4049,"Ġcarrier":4050,"ĠEconom":4051,"acecraft":4052,";-":4053,"Bay":4054,"agles":4055,"Ġsave":4056,"Ġagree":4057,"Ġprovider":4058,"ĠPhilipp":4059,"Dollar":4060,"Sc":4061,"Ġship":4062,"Ġconfl":4063,"Ġmedical":4064,"ipping":4065,"Ġdirector":4066,"ĠRecord":4067,";.":4068,"yware":4069,"ĠTy":4070,"Ġvend":4071,"Ġraise":4072,"ĠOffice":4073,"Ġexplosion":4074,"Ġsafety":4075,"Wh":4076,"ĠOS":4077,"pping":4078,"Ġcontent":4079,"Ġscandal":4080,"ĠCarolina":4081,"ĠParty":4082,"Ġcourse":4083,"serv":4084,"source":4085,"Ġfly":4086,"astern":4087,"ĠPhiladelphia":4088,"ĠNextel":4089,"Ġcounter":4090,"elligence":4091,"iar":4092,"ĠMajor":4093,"urder":4094,"ĠLOS":4095,"Ġdecline":4096,"Ġinterim":4097,"ATO":4098,"As":4099,"Ġfear":4100,"Ġdiplom":4101,"ĠID":4102,"ĠHall":4103,"gery":4104,"ented":4105,"Ġhostages":4106,"Ġsupplies":4107,"ĠCardinals":4108,"urer":4109,"riel":4110,"ograph":4111,"Ġchanges":4112,"iest":4113,"Ġpain":4114,"Ġmillions":4115,"idel":4116,"Ġlic":4117,"ĠHis":4118,"Ġexpects":4119,"Ġconfidence":4120,"Ġdoz":4121,"Ġtroubl":4122,".&":4123,"CS":4124,"ky":4125,"ux":4126,"Ġwanted":4127,"ĠCut":4128,"ĠFund":4129,"Ġfutures":4130,"Ġproposal":4131,"Ġsummer":4132,"ĠANG":4133,"ients":4134,"point":4135,"Ġz":4136,"tery":4137,"though":4138,"ĠStar":4139,"Ġrob":4140,"Ġcontinues":4141,"Mac":4142,"ĠInt":4143,"aut":4144,"Ġer":4145,"thing":4146,"apore":4147,"Ġplant":4148,"reek":4149,"Ġplane":4150,"ELES":4151,"ĠHoward":4152,"alo":4153,"Ġtotal":4154,"Ġthought":4155,"Ġinternet":4156,"lined":4157,"Ġrecently":4158,"olphins":4159,"oud":4160,"ĠFound":4161,"Ġcomple":4162,"ĠSupreme":4163,"ĠANGELES":4164,"Ġastron":4165,"ĠBeat":4166,"Ġpled":4167,"ificant":4168,"Ġclosed":4169,"Ġsil":4170,"Ġbit":4171,"Ġbrought":4172,"ĠPutin":4173,"ĠOak":4174,"oping":4175,"Ġchain":4176,"ailand":4177,"Ġenc":4178,",\\":4179,"Sun":4180,"Ġkept":4181,"Ġresult":4182,"Ġdeficit":4183,"ĠPCs":4184,"ĠServices":4185,"Ġ\\":4186,"Ġwa":4187,"ado":4188,"Ġstates":4189,"ĠDie":4190,"NN":4191,"Ġsend":4192,"isl":4193,"iling":4194,"Ġclimb":4195,"lad":4196,"ĠBen":4197,"Ġ35":4198,"Ġelectronics":4199,"Ġaircraft":4200,"onstr":4201,"endo":4202,"ĠCentral":4203,"Ġpace":4204,"ĠChelsea":4205,"Ġnations":4206,"Ġservers":4207,"Ġgoes":4208,"ĠSant":4209,"ĠDen":4210,"ĠGrow":4211,"Ġending":4212,"Ġillegal":4213,"cel":4214,"ority":4215,"ĠHost":4216,"Ġesc":4217,"Ġborder":4218,"ĠTiger":4219,"ĠOw":4220,"Ġcommission":4221,"makers":4222,"ray":4223,"Ġsending":4224,"Ġocc":4225,"ĠDelta":4226,"ĠGen":4227,"oses":4228,"racy":4229,"Ġbuying":4230,"Ġlawy":4231,"Ġsharply":4232,"ĠMexico":4233,"chen":4234,"arn":4235,"Ġmy":4236,"ĠAriz":4237,"igning":4238,"Ġrain":4239,"rag":4240,"ĠJames":4241,"ĠConference":4242,"Ġstriker":4243,"Ġsettlement":4244,"ara":4245,"ĠSenate":4246,"itzer":4247,"inary":4248,"ĠAriel":4249,"umm":4250,"Ġissued":4251,"Ġsanctions":4252,"iod":4253,"ĠTrop":4254,"estic":4255,"idents":4256,"Ġguilty":4257,"ĠiTunes":4258,"ĠMedia":4259,"ĠAgainst":4260,"ĠPrix":4261,"enezuel":4262,",\"":4263,"bur":4264,"ĠIm":4265,"unch":4266,"Ġdep":4267,"ĠKn":4268,"izon":4269,"Ġconsecutive":4270,"Ġbelow":4271,"Ġscheduled":4272,"noon":4273,"Ġ.":4274,"ĠTimes":4275,"Ġarch":4276,"oxx":4277,"Ġdesign":4278,"Ġproblem":4279,"ĠTurkey":4280,"audi":4281,"Ġcoal":4282,"Ġconcern":4283,"ĠGlobal":4284,"ĠJeff":4285,"Ġslightly":4286,"100":4287,"oned":4288,"Ġfun":4289,"iconduct":4290,"ĠBR":4291,"owers":4292,"ĠStewart":4293,"ĠExt":4294,"encies":4295,"Ġsubs":4296,"ĠMichigan":4297,"ĠChristmas":4298,"ĠFord":4299,"Ġkick":4300,"Ġcommit":4301,"Ġhimself":4302,"high":4303,"ĠSaf":4304,"Ġyoung":4305,"ĠAgency":4306,"Ġterrorist":4307,"ĠHigher":4308,"Ġapplication":4309,"force":4310,"ĠSans":4311,"Ġthrew":4312,"ĠGet":4313,"Ġmemory":4314,"ĠMotors":4315,"OO":4316,"Ġaward":4317,"Ġwalk":4318,"Ġmoon":4319,"Ġlabor":4320,"ĠNets":4321,"Ġimmedi":4322,"Ġimportant":4323,"PEC":4324,"ĠMicros":4325,"ĠUr":4326,"eban":4327,"ublican":4328,"ĠReds":4329,"Ġfeatures":4330,"Ġnewspaper":4331,"ĠStores":4332,"ĠRepublic":4333,"Ġpoor":4334,"Ġcertain":4335,"Ġbas":4336,"ĠSir":4337,"ĠHome":4338,"Ġlonger":4339,"Ġneeds":4340,"Ġund":4341,"enced":4342,"arial":4343,"Ġciting":4344,"Ġwel":4345,"omin":4346,"Ġrange":4347,"Ġsaw":4348,"ĠClassic":4349,"ĠHollywood":4350,"Ġcopy":4351,"NL":4352,"hing":4353,"udget":4354,"Ġ31":4355,"ĠWhile":4356,"ĠFeder":4357,"Report":4358,"ĠSprint":4359,"Ġsports":4360,"idge":4361,"ansion":4362,"Ġroom":4363,"Ġfinance":4364,"ĠCarl":4365,"ĠElection":4366,"ething":4367,"India":4368,"heast":4369,"ĠRam":4370,"earing":4371,"Ġblow":4372,"GH":4373,"Ġsets":4374,"Ġhighest":4375,"ĠNor":4376,"Ġrad":4377,"Ġdesc":4378,"=\"#":4379,"=\"-":4380,"ĠSerif":4381,"helvet":4382,"Ġvoters":4383,"666666":4384,"verdana":4385,"helvetica":4386,"Co":4387,"con":4388,"Ġthese":4389,"ĠCase":4390,"ĠSecurities":4391,"80":4392,"inet":4393,"Ġcover":4394,"ĠCamp":4395,"ĠMem":4396,"Ġran":4397,"Ġplatform":4398,"ĠYear":4399,"Ġupdate":4400,"Ġwind":4401,"Ġcrim":4402,"Ġinflation":4403,"Ġnegotiations":4404,"ĠNigeria":4405,"Ġap":4406,"ĠWay":4407,"Ġconc":4408,"ĠThailand":4409,"Ġbroadband":4410,"Ġcredit":4411,"Ġtonight":4412,"Europe":4413,"Ġspacecraft":4414,"ĠAbu":4415,"ĠDespite":4416,"mers":4417,"oul":4418,"Ġgives":4419,"ĠOK":4420,"16":4421,"Ġurg":4422,"ĠAv":4423,"Ġjournal":4424,"Ġsector":4425,"scri":4426,"fect":4427,"ags":4428,"Ġsees":4429,"aily":4430,"Ġ400":4431,"Ġ60":4432,"13":4433,"Ġcirc":4434,"ĠTake":4435,"Ġvac":4436,"usharra":4437,"Ġhostile":4438,"Ġcaused":4439,"Ġtools":4440,"usharraf":4441,"iation":4442,"jects":4443,"ĠOhio":4444,"umer":4445,"ĠPeace":4446,"Ġfigures":4447,"rad":4448,"oric":4449,"ĠNHL":4450,"ĠDod":4451,"angu":4452,"ikely":4453,"Ġcandidate":4454,"rick":4455,"ingular":4456,"Ġwat":4457,"Ġtough":4458,"Ġhurt":4459,"Ġisland":4460,"Ġdeveloped":4461,"Ġsweep":4462,"Ġrequest":4463,"Ġpilots":4464,"Ġinvent":4465,"stand":4466,"Ġafternoon":4467,"Ġstruck":4468,"inds":4469,"Ġflu":4470,"ĠRepublican":4471,"ĠDefense":4472,"17":4473,"Ġlab":4474,"ĠJav":4475,"Ġsignificant":4476,"Ġfunds":4477,"Mar":4478,"ki":4479,"Ġcreat":4480,"Ġtoll":4481,"ĠLoss":4482,"ĠReg":4483,"Ġflaw":4484,"inisters":4485,"Ġrevealed":4486,"ffic":4487,"Ġowners":4488,"Ġexplod":4489,"Ġneeded":4490,"ĠJean":4491,"ĠVioxx":4492,"BER":4493,"kl":4494,"Ġtoget":4495,"ĠMP":4496,"adesh":4497,"Ġtogether":4498,"AB":4499,"Ġseeks":4500,"orer":4501,"Ġweather":4502,"urers":4503,"lett":4504,"ĠAre":4505,"Ġdeploy":4506,"kei":4507,"overs":4508,"ikkei":4509,"uation":4510,"ĠBry":4511,"Ġvs":4512,"addam":4513,"largest":4514,"Ġtech":4515,"ani":4516,"Ġbox":4517,"Ġmurder":4518,"Ġlay":4519,"Ġprograms":4520,"Ġreduce":4521,"Ġuranium":4522,"Ġpublished":4523,"ĠOakland":4524,"ĠRel":4525,"Ġrule":4526,"ĠDou":4527,"Ġworst":4528,"Ġplanning":4529,"mitted":4530,"ĠGeorg":4531,"Ġpulled":4532,"ĠFormula":4533,"ĠHaiti":4534,"Ġtie":4535,"ĠSE":4536,"Ġmoves":4537,"yard":4538,"ĠCy":4539,"ĠNokia":4540,"Ġitself":4541,"ORON":4542,"veland":4543,"intendo":4544,"iscal":4545,"Ġshareholders":4546,"iconductor":4547,"Ġinnings":4548,"ĠIS":4549,"ĠUt":4550,"ĠLast":4551,"Ġexpress":4552,"Ġdecades":4553,"ĠPatriots":4554,"ĠIrish":4555,"rig":4556,"ĠGets":4557,"Ġlaunches":4558,"Ġtraining":4559,"Ġbombing":4560,"Ġeasy":4561,"Ġinsurgents":4562,"Ġcontroversial":4563,"MP":4564,"Ġcal":4565,"Ġbook":4566,"imir":4567,"cep":4568,"Ġperiod":4569,"Ġinterview":4570,"Ġfiles":4571,"Ġmissile":4572,"ĠFinancial":4573,"Ġconflict":4574,"ration":4575,"omber":4576,"ĠHus":4577,"isted":4578,"gress":4579,"Ġintroduced":4580,"ORONTO":4581,"cow":4582,"ĠSouthern":4583,"ĠLab":4584,"Ġgoals":4585,"Ġ80":4586,"Ġrelations":4587,"urricanes":4588,"going":4589,"Ġfavor":4590,"Ġenvironment":4591,"ĠJobs":4592,"Fed":4593,"Ġsong":4594,"ĠTORONTO":4595,"Ġintegr":4596,"Ġmovie":4597,"Ġbanks":4598,"Ġappeared":4599,"Ġsubsid":4600,"ĠHit":4601,"oteb":4602,"ORE":4603,"Ġbroker":4604,"annie":4605,"Ġfreed":4606,"Ġpractice":4607,"here":4608,"Ġmis":4609,"ĠOf":4610,"ĠKing":4611,"ĠKong":4612,"Ġclass":4613,"azon":4614,"Ġoperator":4615,"ĠKills":4616,"ifts":4617,"Ġdismiss":4618,"Ġenterprise":4619,"Ġsatellite":4620,"ladimir":4621,"En":4622,"Ġtechn":4623,"ĠPan":4624,"ĠBaseball":4625,"Ġshopping":4626,"Ġresol":4627,"Ġbuilt":4628,"ĠEnron":4629,"Cl":4630,"Sony":4631,"pool":4632,"ĠUnd":4633,"ĠGovernment":4634,"ĠEr":4635,"ĠStri":4636,"Ġworries":4637,"Ġquestions":4638,"Ġstrategy":4639,"alv":4640,"ĠTarg":4641,"Ġthings":4642,"ĠRadio":4643,"Ġhelping":4644,"ĠEngine":4645,"ĠSwed":4646,"Ġdifferent":4647,"ĠArizona":4648,"mart":4649,"Ġmember":4650,"Ġ(\\$":4651,"Ġsecure":4652,"Ġinsp":4653,"Ġtouchdowns":4654,"iny":4655,"ery":4656,"Ġwide":4657,"ĠSusp":4658,"allas":4659,"ĠChairman":4660,"Ġsurf":4661,"Ġshowing":4662,"Ġassault":4663,"ification":4664,"Ġrespons":4665,"ĠCleveland":4666,"Cr":4667,"Ġexc":4668,"Ġspent":4669,"Ġmakers":4670,"Ġprotection":4671,"NYSE":4672,"icult":4673,"ĠCost":4674,"merce":4675,"Russia":4676,"ios":4677,"ror":4678,"ĠST":4679,"Ġhel":4680,"ĠProd":4681,"Ġcalling":4682,"iverpool":4683,"ĠIPO":4684,"illed":4685,"ancing":4686,"ĠScott":4687,"Pakistan":4688,"ladesh":4689,"rees":4690,"reed":4691,"ĠMiddle":4692,"uted":4693,"ounts":4694,"ĠVladimir":4695,"Ġindepend":4696,"Ġproducer":4697,"Ġparts":4698,"It":4699,"uke":4700,"Ġsport":4701,"Ġfix":4702,"ĠPAR":4703,"Ġlock":4704,"ĠFree":4705,"ulner":4706,"agement":4707,"ĠInto":4708,"ĠStep":4709,"Ġdecade":4710,"ĠMartin":4711,"Ġmoment":4712,"):":4713,"ried":4714,"Ġowner":4715,"Ġterms":4716,"ĠAMD":4717,"ĠBonds":4718,"ĠNorthern":4719,"ĠDrop":4720,"emb":4721,"izing":4722,"Ġtargets":4723,"ĠAbout":4724,"itrust":4725,"Ġpit":4726,"ĠTenn":4727,"ighb":4728,"Ġwhy":4729,"Ġrecovery":4730,"Ġtack":4731,"ĠDame":4732,"ĠLow":4733,"Ġisn":4734,"Ġjail":4735,"Ġseconds":4736,"Ġsurpr":4737,"Ġsurgery":4738,"ranch":4739,"ĠPlans":4740,"Ġpasses":4741,"week":4742,"Ġauction":4743,"ola":4744,"ements":4745,"ĠThom":4746,"ensions":4747,"venth":4748,"Ġprogress":4749,"ĠDead":4750,"Ġpassed":4751,"Ġordered":4752,"Ġarrived":4753,"Ġdownload":4754,"Ġdamage":4755,"Ġrepresent":4756,"burgh":4757,"NASA":4758,"Ġlose":4759,"ĠOs":4760,"Ġprosp":4761,"ĠJets":4762,"ĠKansas":4763,"Ġextra":4764,"ĠIvory":4765,"ĠNAS":4766,"Ġcricket":4767,"ĠPakistani":4768,"Ġrenew":4769,"Pl":4770,"ques":4771,"ĠKy":4772,"Ġprevent":4773,"Ġoperation":4774,"Ġremained":4775,"Ġdomestic":4776,"Ġsomething":4777,"fire":4778,"ĠAust":4779,"Ġgather":4780,"action":4781,"Ġprep":4782,"Ġphot":4783,"ĠForce":4784,"RA":4785,"Ġcle":4786,"Ġ2000":4787,"ĠFla":4788,"Ġbatt":4789,"Ġprocessor":4790,"Ġcatch":4791,"ĠMets":4792,"poration":4793,"ĠKarzai":4794,"ĠVict":4795,"ounded":4796,"Ġwarns":4797,"Ġlegisl":4798,"Ġmassive":4799,"Ġprobably":4800,"Pro":4801,"Web":4802,"Ġwrong":4803,"ucks":4804,"Ġsurprise":4805,"ĠOfficial":4806,"ĠDivision":4807,"ĠMicrosystems":4808,"war":4809,"Ġpair":4810,"ĠMOS":4811,"ĠDallas":4812,"ĠJason":4813,"Ġ49":4814,"ĠEnergy":4815,"Ġsharp":4816,"Ġreplace":4817,"computer":4818,"CH":4819,"backs":4820,"Ġpict":4821,"ĠSaddam":4822,"ĠTechnologies":4823,"ĠNort":4824,"rain":4825,"ibr":4826,"ackson":4827,"Ġbroke":4828,"Ġrefug":4829,"Ġapproval":4830,"ĠMSN":4831,"ĠRoger":4832,"Nasdaq":4833,"Ġarg":4834,"Ġtrain":4835,"Ġextended":4836,"ĠUkraine":4837,"gency":4838,"inh":4839,"Ġcrew":4840,"ality":4841,"ĠImp":4842,"ackard":4843,"Ġarm":4844,"Ġindic":4845,"Ġdelay":4846,"amsung":4847,"ĠFirefox":4848,"Ġearthqu":4849,"VER":4850,"box":4851,"night":4852,"oor":4853,"Ġyen":4854,"Ġresc":4855,"Ġblue":4856,"ĠArgent":4857,"ĠSteel":4858,"WA":4859,"zilla":4860,"onents":4861,"isions":4862,"Ġbeginning":4863,"Ġbelieve":4864,"Ġlawsuits":4865,"ĠAct":4866,"ĠPowell":4867,"ĠJim":4868,"Ġarms":4869,"Ġ64":4870,"Ġadvertising":4871,"Pr":4872,"Ġathlet":4873,"arters":4874,"ĠCuts":4875,"ĠRon":4876,"ocracy":4877,"Ġshr":4878,"Ġsuit":4879,"Ġrelief":4880,"aterial":4881,"ĠCubs":4882,"Ġcomplete":4883,"Ġfiscal":4884,"Ġcause":4885,"eling":4886,"ĠRa":4887,"oshib":4888,"enspan":4889,"Ġ500":4890,"Ġbrok":4891,"ĠHamas":4892,"ĠMoscow":4893,"CL":4894,"heim":4895,"ĠCam":4896,"Ġlot":4897,"igers":4898,"Ġflat":4899,"phoon":4900,"ĠEarnings":4901,"Ġstandard":4902,"Con":4903,"RO":4904,"ĠHits":4905,"ĠJose":4906,"ĠKh":4907,"abinet":4908,"Ġblack":4909,"ĠExpress":4910,"Ġcoast":4911,"athon":4912,"ĠColin":4913,"Ġsubscri":4914,"ĠSees":4915,"Ġdisappoin":4916,"oshiba":4917,"iment":4918,"ĠStart":4919,"Ġimpact":4920,"Ġdiscovered":4921,"Ġvirus":4922,"American":4923,"JA":4924,"ĠSam":4925,"otion":4926,"raig":4927,"Ġamb":4928,"Ġknee":4929,"Ġhoping":4930,"ĠDisc":4931,"Ġpositive":4932,"Ġstruggling":4933,"Ġtroubled":4934,"Ġide":4935,"utions":4936,"tsburgh":4937,"Ġworldwide":4938,"break":4939,"aron":4940,"ĠStand":4941,"Ġimage":4942,"Ġfacing":4943,"ĠAngels":4944,"ĠPercent":4945,"au":4946,"erem":4947,"ĠSaudi":4948,"Ġdone":4949,"oura":4950,"ĠBid":4951,"ĠBalt":4952,"irac":4953,"ĠRele":4954,"Ġtrip":4955,"Ġdeadline":4956,"Two":4957,"Ġbase":4958,"Ġrank":4959,"Ġadop":4960,"Ġexploded":4961,"Packard":4962,"finals":4963,"yl":4964,"Ġcross":4965,"Ġpaid":4966,"ĠMillion":4967,"ĠWestern":4968,"ĠHat":4969,"ĠEagles":4970,"Ġpromp":4971,"ocial":4972,"Ġfalling":4973,"essional":4974,"Ġwounding":4975,"CAR":4976,"ature":4977,"Ġboy":4978,"Ġdanger":4979,"ĠFood":4980,"ĠOkl":4981,"ĠVenezuel":4982,"Ġcool":4983,"ĠQuarter":4984,"ĠExplorer":4985,"On":4986,"ht":4987,"ĠLeban":4988,"rive":4989,"atings":4990,"ĠConn":4991,"Ġcommon":4992,"ĠMae":4993,"Ġannouncement":4994,"Ġsuffered":4995,"arian":4996,"Ġcas":4997,"elves":4998,"ĠRises":4999,"Ġappears":5000,"Ġdemands":5001,"ĠEnglish":5002,"Ġmoving":5003,"Ġmortgage":5004,"ao":5005,"eals":5006,"ĠFrank":5007,"Ġintelligence":5008,"Ġ2002":5009,"Ġscore":5010,"Ġfinish":5011,"Ġtried":5012,"ĠScientists":5013,"imbab":5014,"ĠMerck":5015,"richment":5016,"Man":5017,"ias":5018,"Ġpension":5019,"ighth":5020,"Ġspark":5021,"ucial":5022,"awks":5023,"Ġsurge":5024,"Ġneighb":5025,"ĠClub":5026,"ĠJustice":5027,"40":5028,"Ġties":5029,"inth":5030,"ĠBat":5031,"Ġoutput":5032,"ĠExpos":5033,"ĠAirbus":5034,"DAY":5035,"Ġaddress":5036,"imbabwe":5037,"BI":5038,"Ġsession":5039,"Ġventure":5040,"usted":5041,"Ġcommun":5042,"Ġdeveloping":5043,"ĠDevelop":5044,"Ġdeadly":5045,"ĠPosts":5046,"Ġveter":5047,"We":5048,"bes":5049,"ecial":5050,"ĠHot":5051,"eman":5052,"ĠIraqis":5053,"Ġcollege":5054,"orado":5055,"ĠPrize":5056,"odies":5057,"Ġhighs":5058,"Ġmarketing":5059,"ĠBoard":5060,"ĠCrude":5061,"ĠDesktop":5062,"ACE":5063,"ĠSmith":5064,"ĠGrowth":5065,"Tr":5066,"Ġcable":5067,"lew":5068,"Ġgreen":5069,"ĠGar":5070,"ĠGulf":5071,"Ġscr":5072,"ization":5073,"Ġorig":5074,"ĠExecutive":5075,"ET":5076,"edd":5077,"omic":5078,"ĠPen":5079,"ĠOld":5080,"ums":5081,"istance":5082,"Ġresign":5083,"Ġ2001":5084,"Ġbenefits":5085,"ĠHewlett":5086,"ION":5087,"ĠDolphins":5088,"ĠCoach":5089,"PeopleSoft":5090,"Ġpers":5091,"roke":5092,"ĠSn":5093,"ĠCA":5094,"ĠMary":5095,"ĠLank":5096,"Ġflights":5097,"Ġapproach":5098,"ĠBangladesh":5099,"ĠLower":5100,"ĠEmb":5101,"ĠJune":5102,"Ġplot":5103,"Ġbombs":5104,"ĠWhat":5105,"COW":5106,"speed":5107,"ĠSingapore":5108,"Ġcriminal":5109,"Air":5110,"dick":5111,"imore":5112,"ĠLiverpool":5113,"ahoma":5114,"Ġfiling":5115,"Ġtelephone":5116,"Ġdetails":5117,"Ġwatchdog":5118,"Ġtwice":5119,"Australia":5120,"ĠPARIS":5121,"Don":5122,"Mc":5123,"half":5124,"reg":5125,"Ġhun":5126,"ĠHom":5127,"awn":5128,"ucted":5129,"Ġraising":5130,"ĠPremier":5131,"real":5132,"ĠPent":5133,"essee":5134,"Ġdeter":5135,"Ġseed":5136,"mselves":5137,"Ġrestruct":5138,"Ġhistoric":5139,"Ġpitcher":5140,"ĠUtah":5141,"ĠMOSCOW":5142,"GM":5143,"erg":5144,"Ġmiles":5145,"Ġhous":5146,"ĠMusharraf":5147,"Ġgirl":5148,"ĠNob":5149,"tha":5150,"Ġunl":5151,"ĠCorporation":5152,"Ġallowed":5153,"Ġsoldier":5154,"Ġnumbers":5155,"ĠDiego":5156,"oke":5157,"Ġministers":5158,"ĠBern":5159,"Ġstem":5160,"ĠThreat":5161,"enses":5162,"efore":5163,"ĠScot":5164,"Ġoptim":5165,"Ġlevels":5166,"Ġallegations":5167,"ĠPittsburgh":5168,"Mo":5169,"PC":5170,"not":5171,"Ġtom":5172,"ĠSem":5173,"Ġlack":5174,"Ġrap":5175,"ĠHas":5176,"Ġvulner":5177,"avens":5178,"ĠSaturn":5179,"Ġinside":5180,"Ġcommunity":5181,"Ġmessage":5182,"fe":5183,"keep":5184,"ued":5185,"ĠAG":5186,"eline":5187,"ecurity":5188,"Ġnames":5189,"acher":5190,"ĠMalays":5191,"ĠJava":5192,"ni":5193,"Ġthemselves":5194,"Ġhear":5195,"Ġareas":5196,"Ġreportedly":5197,"Ġassets":5198,"Ġadvanced":5199,"ĠNotre":5200,"Ġpolls":5201,"communications":5202,"ĠTreasury":5203,"eated":5204,"fin":5205,"help":5206,"ĠTrophy":5207,"Ġmut":5208,"Ġhy":5209,"ĠMount":5210,"ĠRangers":5211,"ĠStill":5212,"Ġscient":5213,"Ġvictims":5214,"Ġtests":5215,"Ġthreats":5216,"Ġspecies":5217,"weight":5218,"board":5219,"75":5220,"washington":5221,"aris":5222,"arrow":5223,"Ġpanel":5224,"iled":5225,"ĠNetworks":5226,"Ġseventh":5227,"Ġcrack":5228,"Ġ70":5229,"ĠPalm":5230,"Ġqualifying":5231,"ĠGeorgia":5232,"ĠBaltimore":5233,"washingtonpost":5234,"Ġsure":5235,"atab":5236,"Ġbrief":5237,"oting":5238,"ĠHP":5239,"ĠLook":5240,"ĠJac":5241,"ĠJackson":5242,"erty":5243,"Ġsixth":5244,"Ġorders":5245,"ano":5246,"aries":5247,"ĠIll":5248,"ĠStation":5249,"ulls":5250,"Ġprovince":5251,"Ġtraders":5252,"Ġvalue":5253,"NBA":5254,"ĠTel":5255,"ĠTurn":5256,"ĠCit":5257,"etary":5258,"Ġshift":5259,"ĠVol":5260,"awa":5261,"iction":5262,"Ġbecoming":5263,"Ġlooked":5264,"Ġgrand":5265,"ĠOutlook":5266,"Ġpurchase":5267,"edro":5268,"irst":5269,"Ġansw":5270,"aks":5271,"Ġsecret":5272,"ĠPrice":5273,"Ġkills":5274,"ĠTrans":5275,"ĠAbb":5276,"Ġattemp":5277,"Ġvirt":5278,"Ġwebs":5279,"24":5280,"bs":5281,"ius":5282,"Ġsoft":5283,"ĠDow":5284,"Ġchar":5285,"ĠChall":5286,"Ġupset":5287,"Ġbegins":5288,"ĠIndustry":5289,"ĠMicro":5290,"olis":5291,"ĠHong":5292,"Ġexchange":5293,"ĠColorado":5294,"ĠHoldings":5295,"Ġestimates":5296,"At":5297,"rate":5298,"atural":5299,"teroid":5300,"Ġdraft":5301,"Ġspl":5302,"Ġregular":5303,"Ġfastest":5304,"ĠRichard":5305,"nam":5306,"Ġninth":5307,"Ġreally":5308,"Ġstory":5309,"imin":5310,"Ġexports":5311,"Ġoffense":5312,"Ġmean":5313,"Ġrelated":5314,"istrict":5315,"eneration":5316,"aur":5317,"eas":5318,"Ġpurs":5319,"Ġbudget":5320,"ami":5321,"ĠWeek":5322,"usion":5323,"ither":5324,"Ġaccept":5325,"Ġresolution":5326,"Ġdisplay":5327,"range":5328,"Ġpatent":5329,"Ġinstead":5330,"ĠMarsh":5331,"ĠBryant":5332,"ĠUnder":5333,"35":5334,"Ġfoot":5335,"Ġmount":5336,"tering":5337,"ctic":5338,"ĠMarch":5339,"Ġantitrust":5340,"ĠAssociates":5341,"ĠMinistry":5342,"Ġdriver":5343,"news":5344,"otebook":5345,"Dow":5346,"cat":5347,"acity":5348,"Ġgrew":5349,"ĠEy":5350,"ickets":5351,"Ġprem":5352,"ruption":5353,"ĠFalls":5354,"ĠSudanese":5355,"ĠRobert":5356,"ĠKilled":5357,"Yahoo":5358,"Ġtennis":5359,"ĠCelt":5360,"ĠMost":5361,"ĠGreek":5362,"quir":5363,"ules":5364,"Ġfinished":5365,"Ġcrucial":5366,"Ġairport":5367,"Ġdemonstr":5368,"ifficult":5369,"Ġseems":5370,"ĠChen":5371,"ĠMag":5372,"otype":5373,"Ġrall":5374,"oph":5375,"Ġheating":5376,"Ġvar":5377,"izer":5378,"Ġsummit":5379,".-":5380,"Car":5381,"long":5382,"edia":5383,"ĠRem":5384,"anda":5385,"Ġexpansion":5386,"ĠClaim":5387,"Ġjumped":5388,"LO":5389,"iro":5390,"tr":5391,"Ġcars":5392,"omen":5393,"ivid":5394,"ogn":5395,"Ġindustrial":5396,"Ġdram":5397,"Ġhotel":5398,"Ġcy":5399,"iced":5400,"Ġmiddle":5401,"Ġquit":5402,"Ġdefensive":5403,"Ġtesting":5404,"ĠNovell":5405,"Ġfamiliar":5406,"ĠShiite":5407,"Ġcompleted":5408,"ĠDodgers":5409,"ĠTennessee":5410,"'re":5411,"arry":5412,"Ġbur":5413,"Ġoften":5414,"ĠCould":5415,"Ġthing":5416,"Ġlines":5417,"elled":5418,"aze":5419,"Ġopener":5420,"Ġstudents":5421,"Ġhandheld":5422,"ITY":5423,"Ġcritical":5424,"Ġupgrade":5425,"ĠOklahoma":5426,"Ġgolf":5427,"ogs":5428,"portunity":5429,"Ġvoting":5430,"Ġprepared":5431,"British":5432,"Ġpartnership":5433,"ein":5434,"ĠMatt":5435,"ĠBall":5436,"ĠGood":5437,"ĠVote":5438,"Ġends":5439,"Ġcurrency":5440,"Ġchalleng":5441,"eckham":5442,"Ara":5443,"za":5444,"Ġlands":5445,"ĠFight":5446,"anded":5447,"ĠJew":5448,"ordan":5449,"Ġstrength":5450,"azine":5451,"Ġheaded":5452,"Ġcollect":5453,"ĠAssociated":5454,"Ġforecasts":5455,"Ġpackage":5456,"IJ":5457,"eer":5458,"erate":5459,"Ġhor":5460,"ĠBell":5461,"inez":5462,"ĠCollege":5463,"Ġsemif":5464,"LC":5465,"Net":5466,"bury":5467,"van":5468,"ero":5469,"icop":5470,"asc":5471,"ĠSEC":5472,"ĠLad":5473,"ĠLines":5474,"aining":5475,"abilities":5476,"Ġupd":5477,"Ġmissed":5478,"Ġpreviously":5479,"Ġtomorrow":5480,"gen":5481,"Ġhalt":5482,"Ġlive":5483,"ĠRoman":5484,"Ġunexpected":5485,"Ġrecords":5486,"apping":5487,"ĠCommittee":5488,"Ġconsidering":5489,"ĠPacific":5490,"Ġdeclared":5491,"Ġways":5492,"Ġhurricane":5493,"ĠLat":5494,"ument":5495,"ivity":5496,"overnor":5497,"ALEM":5498,"Ġclosing":5499,"Ġformat":5500,"Ġtreatment":5501,"PS":5502,"ĠSay":5503,"ĠSeen":5504,"Ġdate":5505,"ĠCingular":5506,"umble":5507,"isting":5508,"sein":5509,"Ġaccep":5510,"Ġresume":5511,"Ġincome":5512,"ĠBraves":5513,"Ġentire":5514,"lan":5515,"Ġhon":5516,"Ġstun":5517,"Ġclimate":5518,"Ġ34":5519,"ĠFalluja":5520,"Ġmatter":5521,"Ġschedule":5522,"TER":5523,"ique":5524,"kish":5525,"iners":5526,"onse":5527,"Ġbought":5528,"ĠKeep":5529,"Ġallows":5530,"Ġwarming":5531,"ĠAlan":5532,"Ġquickly":5533,"ĠNASCAR":5534,"te":5535,"ĠBet":5536,"Ġring":5537,"aine":5538,"Ġarmed":5539,"Ġorganiz":5540,"Ġindex":5541,"ĠManning":5542,"Ġmanufacturing":5543,"Israeli":5544,"pre":5545,"engt":5546,"ĠCell":5547,"uble":5548,"assini":5549,"Ġtraffic":5550,"Ġjoined":5551,"Ġhomer":5552,"ĠHamid":5553,"ĠLeader":5554,"ĠDonald":5555,"stitution":5556,"Fl":5557,"oom":5558,"Ġill":5559,"ĠCal":5560,"eway":5561,"rys":5562,"Ġteen":5563,"Ġorgan":5564,"Ġdecide":5565,"Ġinclude":5566,"fielder":5567,"icipated":5568,"Ġcopyright":5569,"ĠWales":5570,"apolis":5571,"Ġvia":5572,"Ġjud":5573,"Ġleads":5574,"ĠOrganization":5575,"ĠCharles":5576,"ĠBroad":5577,"beaten":5578,"ATODAY":5579,"hard":5580,"horn":5581,"Ġfaster":5582,"ĠCraig":5583,"olic":5584,"Ġclash":5585,"Ġresidents":5586,"Ġthanks":5587,"ĠMcL":5588,"Ġcreated":5589,"Ġemergency":5590,"Palestinian":5591,"helps":5592,"RM":5593,"lers":5594,"Ġmaterial":5595,"Ġdifficult":5596,"Ġrefer":5597,"Ġenrichment":5598,"ously":5599,"iban":5600,"eful":5601,"Ġadding":5602,"Ġcustomer":5603,"Ġeyes":5604,"Ticker":5605,"Ġcards":5606,"ĠStorm":5607,"antage":5608,"Ġdisease":5609,"print":5610,"struction":5611,"Ġretailers":5612,"ĠElectronics":5613,"Ġoptions":5614,"Ġvoted":5615,"Ġdoubt":5616,"ĠPhilippines":5617,"South":5618,"hell":5619,"Ġcents":5620,"ĠJER":5621,"ocol":5622,"ĠVik":5623,"Ġnothing":5624,"USALEM":5625,"Ġreturns":5626,"Ġbringing":5627,"ĠIndonesian":5628,"ĠNY":5629,"Ġextend":5630,"AMD":5631,"evin":5632,"ĠJERUSALEM":5633,"Tech":5634,"Ġfigh":5635,"ĠNep":5636,"Ġstars":5637,"Ġspr":5638,"ĠColomb":5639,"Ġoption":5640,"castle":5641,"Ġdocuments":5642,"Ġgeneration":5643,"ml":5644,"aval":5645,"Ġsetting":5646,"bean":5647,"Ġdenied":5648,"Ġwitnesses":5649,"IJING":5650,"eded":5651,"ĠSim":5652,"ĠSix":5653,"ĠWrap":5654,"Ġdeals":5655,"ĠChris":5656,"Ġbanking":5657,"ĠBarry":5658,"Ġconditions":5659,"Ġeastern":5660,"Ġsteps":5661,"Ġbelieved":5662,"Ġcandidates":5663,"Ġcancer":5664,"19":5665,"generation":5666,"ĠSystem":5667,"ĠPGA":5668,"igroup":5669,"Ġeighth":5670,"ĠOPEC":5671,"ONG":5672,"Ġdelayed":5673,"Iraqi":5674,"Ġlinked":5675,"ĠBEIJING":5676,"Sadr":5677,"enty":5678,"ĠMov":5679,"ĠRally":5680,"ampa":5681,"Ġscience":5682,"Ġrecall":5683,"ĠArt":5684,"ĠZimbabwe":5685,"Ġsmart":5686,"Ġmodel":5687,"ĠAttack":5688,"Ġchanged":5689,"Ġapparently":5690,"ĠHussein":5691,"GE":5692,"mates":5693,"ilar":5694,"ĠFrances":5695,"Ġscores":5696,"Ġ300":5697,"ushing":5698,"Ġdiscl":5699,"Ġinflu":5700,"ĠAnnan":5701,"html":5702,"bl":5703,"road":5704,"ĠSchool":5705,"ador":5706,"ription":5707,"Ġcomputing":5708,"Ġjet":5709,"Ġstrengt":5710,"Ġelectronic":5711,"Ġcutting":5712,"ĠAndy":5713,"Ġboosted":5714,"ĠTitan":5715,"rysler":5716,"Ġfr":5717,"Ġshock":5718,"Ġwasn":5719,"ibly":5720,"Ġputs":5721,"ĠSwiss":5722,"Ġpreparing":5723,"ĠAnti":5724,"Ġpriority":5725,"Ġson":5726,"ĠSk":5727,"Ġmixed":5728,"ĠTerror":5729,"ĠTigers":5730,"ĠPoll":5731,"ĠBur":5732,"ĠDam":5733,"odaf":5734,"ĠLeg":5735,"atabase":5736,"quiry":5737,"rd":5738,"Ġbodies":5739,"ĠPack":5740,"umn":5741,"Ġabd":5742,"Ġsolid":5743,"Ġbelieves":5744,"Ġinvolved":5745,"odafone":5746,"uan":5747,"ĠTakes":5748,"Ġthr":5749,"ersey":5750,"ĠGM":5751,"ĠGun":5752,"ĠHug":5753,"ĠEv":5754,"apse":5755,"ught":5756,"Ġmovies":5757,"ymn":5758,"Ġcarrying":5759,"ĠLanka":5760,"400":5761,"OU":5762,"hman":5763,"ali":5764,"ĠPedro":5765,"ĠFannie":5766,"Ġcrashed":5767,"Ġmanagers":5768,"ĠIndiana":5769,"Ġestab":5770,"ĠHelp":5771,"Ġfriend":5772,"Ġcoalition":5773,"Look":5774,"hi":5775,"ewis":5776,"porter":5777,"ĠVideo":5778,"Ġupcoming":5779,"Ġresigned":5780,"Ġ32":5781,"Ġincludes":5782,"Ġadvance":5783,"ĠQaeda":5784,"Ġsmaller":5785,"ĠMozilla":5786,"ĠFederer":5787,"lins":5788,"yan":5789,"ĠAz":5790,"ĠGra":5791,"ĠGreat":5792,"ĠLife":5793,"aint":5794,"anging":5795,"Ġdoctors":5796,"Ġindependent":5797,"oe":5798,"ils":5799,"uburn":5800,"izes":5801,"racts":5802,"ĠAllawi":5803,"ĠAmazon":5804,"Ġallegedly":5805,"ĠCuba":5806,"ĠLaden":5807,"TI":5808,"Ġsens":5809,"Ġsought":5810,"ĠDigital":5811,"ierce":5812,"Ġreceiver":5813,"Ġaims":5814,"Ġactivities":5815,"oning":5816,"ĠBillion":5817,"ĠOT":5818,"ĠKevin":5819,"aceut":5820,"errill":5821,"Ġtrib":5822,"ĠMartinez":5823,"Ġiniti":5824,"aheim":5825,"Ġut":5826,"Ġturning":5827,"Ġpun":5828,"ĠTer":5829,"Ġgone":5830,"Ġstre":5831,"Ġrare":5832,"Ġalways":5833,"Ġscreen":5834,"Ġpartner":5835,"Ġsurged":5836,"Ġconfident":5837,"ĠAdministration":5838,"armaceut":5839,"Ġstarts":5840,"ĠAttorney":5841,"ĠReturn":5842,"ĠMeet":5843,"Ġbegun":5844,"Ġretirement":5845,"55":5846,"Ġwife":5847,"ĠAOL":5848,"ĠCall":5849,"ĠCITY":5850,"Ġgoods":5851,"ĠWatch":5852,"ĠNikkei":5853,"Ġhearing":5854,"ĠChip":5855,"ĠConf":5856,"Ġentered":5857,"Ġactivity":5858,"ĠRoyal":5859,"49":5860,"gic":5861,"Ġwait":5862,"rec":5863,"stant":5864,"ĠProp":5865,"chie":5866,"Ġanim":5867,"Ġadmitted":5868,"Ġterrorists":5869,"Ġspeculation":5870,"Ġbroadcast":5871,"Ġsteel":5872,"Ġeye":5873,"ĠLaunch":5874,")--":5875,"million":5876,"Ġband":5877,"Ġbott":5878,"Ġmys":5879,"Ġhal":5880,"ĠLib":5881,"Ġunions":5882,"aven":5883,"isher":5884,"Ġputting":5885,"iership":5886,"ĠCarlos":5887,"Ġhelicop":5888,"Ġmutual":5889,"Ġens":5890,"Ġawa":5891,"Ġcat":5892,"ĠMess":5893,"irth":5894,"usive":5895,"ĠDS":5896,"ĠVis":5897,"Ġ33":5898,"Ġcentury":5899,"ĠPlayer":5900,"ĠSyria":5901,"Gr":5902,"UM":5903,"Ġcit":5904,"ĠII":5905,"ĠNuclear":5906,"Ġage":5907,"ubble":5908,"Ġrook":5909,"rowing":5910,"Ġindivid":5911,"ĠConsumer":5912,"Ġimproved":5913,"AZ":5914,"init":5915,"ĠNintendo":5916,"osen":5917,"Ġuns":5918,"place":5919,"Ġflood":5920,"ĠJoe":5921,"ĠHamm":5922,"65":5923,"Ġbol":5924,"Ġmajority":5925,"Ġregional":5926,"Ġconnect":5927,"ĠTarget":5928,"AU":5929,"Nokia":5930,"Ġtext":5931,"ĠTampa":5932,"ĠKey":5933,"Ġalthough":5934,"Ġspend":5935,"Ġspect":5936,"ĠSatellite":5937,"ĠCharl":5938,"Ġsimilar":5939,"Ġwithdrawal":5940,"Russian":5941,"ĠInvestors":5942,"finance":5943,"Sch":5944,"iary":5945,"ĠSri":5946,"ushes":5947,"ĠFOR":5948,"ĠDeath":5949,"Ġvice":5950,"iple":5951,"argo":5952,"Star":5953,"ĠBoost":5954,"ĠNewsFactor":5955,"attled":5956,"ĠBigley":5957,"ĠCongo":5958,"Ġprisoners":5959,"21":5960,"cape":5961,"rast":5962,"inning":5963,"Ġmist":5964,"Ġele":5965,"bert":5966,"incinn":5967,"Ġshuttle":5968,"ĠHewitt":5969,"incinnati":5970,"Sing":5971,"TV":5972,"inter":5973,"heastern":5974,"Ġbooks":5975,"Ġnarrow":5976,"Ġliving":5977,"ĠWil":5978,"rier":5979,"ĠJon":5980,"Ġovertime":5981,"ucing":5982,"ĠNewcastle":5983,"phere":5984,"ELS":5985,"Ġpromised":5986,"Ġvotes":5987,"NewsFactor":5988,"HI":5989,"wait":5990,"Ġpushed":5991,"terror":5992,"Ġease":5993,"ĠChile":5994,"ĠAnaheim":5995,"Ġ45":5996,"Ġprelim":5997,"Ġdeveloper":5998,"type":5999,"Ġhanded":6000,"Ġstandards":6001,"60":6002,"Ad":6003,"Gl":6004,"jan":6005,"mission":6006,"Ġsides":6007,"Ġcities":6008,"ĠJr":6009,"Ġofficers":6010,"Ġdefending":6011,"Ġflash":6012,"Ġbuys":6013,"Ġentertainment":6014,"Ġfinding":6015,"Ġshooting":6016,"asion":6017,"ĠBears":6018,"ĠRun":6019,"Ġstadium":6020,"ĠEver":6021,"ĠKAB":6022,"Ġagent":6023,"ĠSpeed":6024,"Ġdoing":6025,"ysis":6026,"Ġdevast":6027,"Ġedge":6028,"Ġresponse":6029,"operation":6030,"Ġvehicle":6031,"Ġmachines":6032,"Ġimmediately":6033,"ĠScotland":6034,"room":6035,"uster":6036,"ĠLiber":6037,"Ġbehead":6038,"ĠJournal":6039,"ĠInf":6040,"Ġvill":6041,"Ġleaves":6042,"istons":6043,"Ġattend":6044,"Ġparties":6045,"rawl":6046,"Ġstrikes":6047,"Ġdestro":6048,"Ġveteran":6049,"ĠKABUL":6050,"OP":6051,"esis":6052,"Ġpatch":6053,"Ġhum":6054,"Ġrac":6055,"ĠHeat":6056,"ĠEuro":6057,"apova":6058,"Ġovernight":6059,"Ġ38":6060,"Ġattention":6061,"ĠProbe":6062,"Ġdeclined":6063,"Ġremote":6064,"Ġassist":6065,"Ġdeaths":6066,"Ġhardware":6067,"Ġremaining":6068,"ĠTaliban":6069,"Ġterrit":6070,"Vo":6071,"hit":6072,"onent":6073,"Ġword":6074,"Ġdual":6075,"Ġrecomm":6076,"ĠHop":6077,"Ġabuse":6078,"ĠShow":6079,"Ġplanet":6080,"Ġstronger":6081,"ĠGreenspan":6082,"Ġtraditional":6083,"Ġvoice":6084,"Ġrenewed":6085,"Ġbroken":6086,"Kerry":6087,"cks":6088,"election":6089,"uild":6090,"ĠHer":6091,"assi":6092,"ĠRev":6093,"Ġembassy":6094,"Ġmatches":6095,"ĠLaunches":6096,"Ġdescrib":6097,"Ġpur":6098,"Ġinn":6099,"ĠJordan":6100,"iana":6101,"ĠThan":6102,"abul":6103,"icky":6104,"Ġtrouble":6105,"Ġ90":6106,"othing":6107,"Ġacquired":6108,"Ġfinds":6109,"ĠPremiership":6110,"ĠRoddick":6111,"Ġwidely":6112,"Ġsituation":6113,"CE":6114,"Ġfine":6115,"ĠSeeks":6116,"ĠIM":6117,"ĠBron":6118,"ests":6119,"ĠStan":6120,"Ġcrimes":6121,"ĠAtlantic":6122,"Ġsupercomputer":6123,"ĠVerizon":6124,"prof":6125,"Cisco":6126,"cons":6127,"hran":6128,"ped":6129,"yond":6130,"iter":6131,"ĠRand":6132,"Ġbeyond":6133,"ĠYour":6134,"Ġunbeaten":6135,"ĠReports":6136,"ĠBlu":6137,"ĠPhone":6138,"ĠAndre":6139,"Ġadvantage":6140,"Ġmagazine":6141,"Ser":6142,"Will":6143,"ca":6144,"fizer":6145,"arq":6146,"Ġham":6147,"Ġhole":6148,"ĠToshiba":6149,"irus":6150,"antec":6151,"Ġreserv":6152,"Ġopens":6153,"ointed":6154,"Ġremov":6155,"Ġadds":6156,"ĠRetail":6157,"Ġgrab":6158,"Ġseparate":6159,"Ġincreasingly":6160,"Dell":6161,"cos":6162,"Ġcorn":6163,"ĠSA":6164,"ĠCincinnati":6165,"ĠMid":6166,"Ġ41":6167,"Ġmeans":6168,"USS":6169,"ĠColumb":6170,"Ġmaintain":6171,"ĠPacers":6172,"ĠTwins":6173,"Ġdisappointing":6174,"ĠNobel":6175,"Cent":6176,"iece":6177,"zy":6178,"Ġfan":6179,"Ġwords":6180,"Ġmine":6181,"state":6182,"ĠBas":6183,"Ġquiet":6184,"odak":6185,"Ġcontrib":6186,"ĠForec":6187,"Ġassass":6188,"Ġsuspects":6189,"oppers":6190,"Ġearthquake":6191,"ĠJewish":6192,"PM":6193,"TC":6194,"fort":6195,"Ġcast":6196,"ĠSi":6197,"Ġmot":6198,"ĠMr":6199,"ĠMet":6200,"ĠMove":6201,"Ġlog":6202,"ĠNL":6203,"ĠHockey":6204,"ĠLewis":6205,"Ġkind":6206,"Ġovert":6207,"Ġaband":6208,"Ġpostp":6209,"Ġbombings":6210,"Ġclaiming":6211,"Ġparent":6212,"ĠIndianapolis":6213,"Ġinvestigating":6214,"annel":6215,"Ġunveils":6216,"buster":6217,"ĠMontreal":6218,"Kore":6219,"Pol":6220,"Sudan":6221,"feld":6222,"Ġtent":6223,"inch":6224,"icts":6225,"ĠSub":6226,"ĠAid":6227,"ĠGary":6228,"ĠHard":6229,"ĠJack":6230,"oca":6231,"Ġplays":6232,"ĠChart":6233,"seeded":6234,"overy":6235,"Ġappeals":6236,"Ġcapacity":6237,"apped":6238,"iversary":6239,"ijay":6240,"ietnam":6241,"Ġspeech":6242,"ĠArgentina":6243,"Ġrallied":6244,"arqawi":6245,"22":6246,"PA":6247,"esp":6248,"Ġwave":6249,"ĠFive":6250,"ĠRaid":6251,"Ġspir":6252,"Ġofficially":6253,"ooth":6254,"otten":6255,"Ġfailure":6256,"opped":6257,"Ġsemi":6258,"Ġmic":6259,"ĠMake":6260,"ĠMakes":6261,"Ġrather":6262,"ĠLee":6263,"Ġvowed":6264,"arta":6265,"Ġdisaster":6266,"Ġimages":6267,"Ġdefence":6268,"ĠSecond":6269,"Ġlaws":6270,"Ġbrand":6271,"Ġdirectors":6272,"ĠEgyptian":6273,"ĠRedskins":6274,"Ġrookie":6275,"Ġprize":6276,"ĠMel":6277,"ĠMach":6278,"ĠeBay":6279,"estone":6280,"Ġplaced":6281,"ordon":6282,"rowns":6283,"Ġscoring":6284,"Ġattorney":6285,"Ġheading":6286,"Intern":6287,"Ġelimin":6288,"Ġdozens":6289,"celona":6290,"05":6291,"Ship":6292,"rob":6293,"star":6294,"ĠBrian":6295,"Ġnatural":6296,"igious":6297,"ĠLarry":6298,"Ġabs":6299,"Ġalliance":6300,"minent":6301,"Ġcompete":6302,"Ġleadership":6303,"ĠGuard":6304,"ĠPlayers":6305,"ĠMilan":6306,"Ġclean":6307,"ĠJacques":6308,"Ġwebsite":6309,"Ġcitiz":6310,"jhtml":6311,"Ġachie":6312,"Ġpip":6313,"Ġbin":6314,"Ġder":6315,"outs":6316,"Ġlives":6317,"ĠRavens":6318,"thrit":6319,"agon":6320,"iege":6321,"Ġsued":6322,"Space":6323,"Former":6324,"ĠCapital":6325,"ĠMorgan":6326,"ĠWayne":6327,"ĠStrike":6328,"aug":6329,"cient":6330,"sym":6331,"va":6332,"Ġtiny":6333,"esh":6334,"Ġbarg":6335,"ĠBefore":6336,"ĠRiver":6337,"illy":6338,"ĠDr":6339,"ĠUnveil":6340,"ĠIsland":6341,"umped":6342,"Ġcontinuing":6343,"ofi":6344,"Ġcaptured":6345,"ĠAuto":6346,"ĠAuthor":6347,"Ġapolog":6348,"ymnast":6349,"Ġfranch":6350,"Ġbacks":6351,"ĠRad":6352,"ĠInj":6353,"Ġperfect":6354,"Ġallowing":6355,"Ġ700":6356,"QuoteLook":6357,"Ġincreases":6358,"Ġrebounds":6359,"Ġtelecommunications":6360,"Ġinfotype":6361,"Ġkeeping":6362,"ĠTehran":6363,"Ġfeature":6364,"ĠBelg":6365,"Ġcamera":6366,"Ġqcat":6367,"Ġqtype":6368,"financeQuoteLook":6369,"financeQuoteLookup":6370,"TLE":6371,"Ġtechnologies":6372,"inos":6373,"erc":6374,"Ġdies":6375,"ĠTax":6376,"idered":6377,"ĠPT":6378,"adem":6379,"igger":6380,"ĠWalt":6381,"owb":6382,"owled":6383,"ĠHass":6384,"lying":6385,"aints":6386,"aby":6387,"Ġslam":6388,"Ġsupporters":6389,"Ġattacked":6390,"Ġevening":6391,"Ġnationwide":6392,"Ġlineup":6393,"Ġinstant":6394,"ĠRooney":6395,"ĠTroops":6396,"United":6397,"Ġvehicles":6398,"thritis":6399,".;":6400,"70":6401,"AOL":6402,"LS":6403,"Ġtell":6404,"Ġsy":6405,"Ġsal":6406,"Ġreject":6407,"Ġlear":6408,"ĠThird":6409,"Ġworm":6410,"berg":6411,"venue":6412,"Ġsentenced":6413,"ĠEconomic":6414,"Off":6415,"haps":6416,"yad":6417,"het":6418,"Ġfair":6419,"Ġbi":6420,"icious":6421,"Ġrein":6422,"ĠWor":6423,"ĠHear":6424,"apers":6425,"Ġoverall":6426,"anges":6427,"INE":6428,"Ġdemocracy":6429,"Ġassoci":6430,"Ġauto":6431,"Ġthreatening":6432,"Ġcaught":6433,"Ġedged":6434,"stitute":6435,"Ġpreliminary":6436,"Bra":6437,"aver":6438,"Ġsun":6439,"arily":6440,"ĠSports":6441,"ĠPet":6442,"ĠPeople":6443,"ĠEqu":6444,"Ġking":6445,"ucation":6446,"Study":6447,"Ġproviders":6448,"umps":6449,"Ġsucceed":6450,"ervez":6451,"ĠAccording":6452,"Ġprosecutors":6453,"Ġwelcom":6454,"Ġtackle":6455,"cine":6456,"ĠSamsung":6457,"urton":6458,"ĠDollar":6459,"ĠHave":6460,"Ġability":6461,"ĠSha":6462,"ĠAnother":6463,"iburton":6464,"Ġimm":6465,"anged":6466,"ĠOffer":6467,"ĠManagement":6468,"Ġkeeps":6469,"Ġlaunching":6470,"Ġprocessors":6471,"ĠTurkish":6472,"Ġpredict":6473,"Comp":6474,"Ġcoup":6475,"Ġrestructuring":6476,"DS":6477,"kle":6478,"ĠAthlet":6479,"ĠPervez":6480,"ĠGov":6481,"Ġcomments":6482,"Ġvan":6483,"Ġwhite":6484,"Ġdefeated":6485,"Ġholds":6486,"Ġviolent":6487,"Ġtempor":6488,"18":6489,"First":6490,"well":6491,"Ġwest":6492,"icals":6493,"ĠBreak":6494,"olm":6495,"ĠDun":6496,"ĠGh":6497,"ĠHO":6498,"ourcing":6499,"Ġrout":6500,"Ġunless":6501,"Ġreporting":6502,"Ġknock":6503,"ĠDenver":6504,"Ġexpressed":6505,"AA":6506,"More":6507,"mond":6508,"Ġten":6509,"arks":6510,"Ġbell":6511,"Ġdie":6512,"ecess":6513,"Ġrises":6514,"Ġchances":6515,"Ġtruck":6516,"Ġextension":6517,"ĠSeven":6518,"CAA":6519,"ĠClaims":6520,"Ġdramatic":6521,"Ġver":6522,"Ġfees":6523,"Ġwond":6524,"ĠSING":6525,"Ġdatabase":6526,"Ġgiants":6527,"Ġstret":6528,"ĠGates":6529,"ĠHoll":6530,"Ġcomeb":6531,"Ġagencies":6532,"Ġbacked":6533,"ĠColts":6534,"Ġraises":6535,"Ġtelecom":6536,"Ġadvis":6537,"Ġobserv":6538,"Ġtowards":6539,"Ġfeel":6540,"Ġlifted":6541,"rolled":6542,"Ġsongs":6543,"Ġrapid":6544,"04":6545,"BUR":6546,"hood":6547,"Ġcur":6548,"Ġwake":6549,"Ġpra":6550,"ĠSum":6551,"aked":6552,"umph":6553,"enders":6554,"Ġseized":6555,"Ġcommand":6556,"raphics":6557,"ĠEntertainment":6558,"Ġseparat":6559,"known":6560,"Ġzone":6561,"ShipOne":6562,"born":6563,"anes":6564,"Ġbul":6565,"icing":6566,"ĠSY":6567,"ĠNe":6568,"ĠDirect":6569,"emen":6570,"Ġnewly":6571,"APORE":6572,"Ġenj":6573,"foWorld":6574,"Ġturns":6575,"Ġportable":6576,"Ġchoice":6577,"29":6578,"IG":6579,"haul":6580,"eland":6581,"ĠPhelps":6582,"ĠBus":6583,"ĠBeckham":6584,"ĠUSA":6585,"pril":6586,"ĠAli":6587,"Ġfailing":6588,"Ġdrives":6589,"ĠSINGAPORE":6590,"Source":6591,"auts":6592,"had":6593,"Ġsidel":6594,"Ġdrove":6595,"Ġdream":6596,"Ġonto":6597,"etts":6598,"Ġeased":6599,"Ġemail":6600,"ounce":6601,"ĠVijay":6602,"oyal":6603,"ĠToday":6604,"Ġsolution":6605,"Ġpoised":6606,"Ġemerged":6607,"Ġsafe":6608,"Ġmanufacturer":6609,"Ġvendors":6610,"ĠSteelers":6611,"Ġcomeback":6612,"FC":6613,"reens":6614,"Ġpen":6615,"Ġmal":6616,"ĠRap":6617,"Ġwash":6618,"Ġunf":6619,"Ġresum":6620,"Ġuser":6621,"ebr":6622,"ĠLeads":6623,"Ġ65":6624,"gram":6625,"Ġannounces":6626,"ĠPlc":6627,"elson":6628,"sule":6629,"ĠHead":6630,"sharing":6631,"ĠSchilling":6632,"Ġstreets":6633,"sters":6634,"Ġult":6635,"Ġhurricanes":6636,"amous":6637,"quarters":6638,"ĠStore":6639,"Ġevents":6640,"ĠLeaders":6641,"Ġcollapse":6642,"Ġpicked":6643,"udden":6644,"Ġvendor":6645,"ĠThomas":6646,"ĠChallenge":6647,"Card":6648,"ST":6649,"power":6650,"oral":6651,"ĠSign":6652,"ĠAuburn":6653,"rav":6654,"Ġplun":6655,"Ġaltern":6656,"Ġjury":6657,"ĠVietnam":6658,"Ġblasts":6659,"Ġgovernments":6660,"engers":6661,"ĠQue":6662,"Ġinstall":6663,"Ġmessages":6664,"Ġerup":6665,"Ġwaiting":6666,"Ġtechnical":6667,"ĠVenezuela":6668,"ae":6669,"Ġbomber":6670,"Ġinquiry":6671,"ĠAB":6672,"usetts":6673,"ĠJays":6674,"achusetts":6675,"Ġwinds":6676,"Ġtrigger":6677,"Ġannouncing":6678,"Ġplanes":6679,"Ġpassenger":6680,"ĠSeason":6681,"Ġcondem":6682,"Ġuncertain":6683,"Ġcriticism":6684,"Ġunlikely":6685,"EG":6686,"met":6687,"Ġtur":6688,"Ġcerem":6689,"Ġpiracy":6690,"Ġfort":6691,"Ġworks":6692,"ĠUnit":6693,"ĠĠĠĠ":6694,"Ġpartic":6695,"ĠForces":6696,"Ġheads":6697,"posed":6698,"Ġdeadl":6699,"Ġfalls":6700,"ĠAcqu":6701,"Ġinvolving":6702,"tada":6703,"itude":6704,"ĠApril":6705,"Ġlap":6706,"ĠGordon":6707,"agers":6708,"Ġheat":6709,"Ġshipping":6710,"ĠKobe":6711,"Ġrevers":6712,"Ġrefused":6713,"Ġpeacekeep":6714,"Ġbanned":6715,"Ġdoubled":6716,"Ġmeasures":6717,"Bar":6718,"EFA":6719,"Wal":6720,"eras":6721,"aling":6722,"ĠTre":6723,"unich":6724,"Ġoffset":6725,"uggle":6726,"Ġalive":6727,"Blair":6728,"ĠMilitants":6729,"ĠRebels":6730,"Ġencoura":6731,"Ġoccup":6732,"Ġlawyers":6733,"Bomb":6734,"aire":6735,"aida":6736,"och":6737,"ister":6738,"ĠWild":6739,"ĠLim":6740,"ĠJersey":6741,"ĠStud":6742,"ĠKar":6743,"ables":6744,"oyota":6745,"azer":6746,"Ġconsidered":6747,"Ġsoaring":6748,"Ġbreaking":6749,"Ġdriving":6750,"Ġimproving":6751,"Ġcreating":6752,"Central":6753,"SA":6754,"cost":6755,"Ġice":6756,"Ġself":6757,"Ġdial":6758,"ĠCarter":6759,"ĠLions":6760,"Ġunits":6761,"Ġseasons":6762,"Ġdelays":6763,"related":6764,"Ġpossibly":6765,"ĠFinal":6766,"Ġviruses":6767,"inois":6768,"ĠMassachusetts":6769,"Ġrefugee":6770,"Ġidea":6771,"47":6772,"EA":6773,"Ġfit":6774,"ĠId":6775,"osh":6776,"aped":6777,"Ġquite":6778,"Ġcontest":6779,"Ġcontracts":6780,"Ġanniversary":6781,"Ġsurround":6782,"Ġpostseason":6783,"NEY":6784,"ummary":6785,"Le":6786,"cont":6787,"dollar":6788,"wh":6789,"ĠCD":6790,"ĠPass":6791,"Ġstreet":6792,"Ġris":6793,"imp":6794,"ĠOpt":6795,"ĠJagu":6796,"Ġclashes":6797,"Ġraid":6798,"ĠDemocrats":6799,"ĠBrazilian":6800,"Ġradical":6801,"anguage":6802,"ĠJeanne":6803,"ĠConnect":6804,"Arafat":6805,"gu":6806,"side":6807,"aret":6808,"Ġcold":6809,"isation":6810,"ĠSource":6811,"Ġongoing":6812,"Ġeither":6813,"ĠYoung":6814,"Ġtries":6815,"Ġinjuring":6816,"Ġtraded":6817,"ĠEnterprise":6818,"Ġsquad":6819,"owboys":6820,"Big":6821,"burg":6822,"ez":6823,"mate":6824,"sun":6825,"Ġbirth":6826,"lement":6827,"ĠPle":6828,"Ġlows":6829,"ĠDEL":6830,"ĠGolf":6831,"employ":6832,"ĠKim":6833,"ĠKabul":6834,"ĠKofi":6835,"outheast":6836,"lected":6837,"herlands":6838,"Ġslide":6839,"Ġswitch":6840,"ĠOffers":6841,"Ġschools":6842,"Ġstatus":6843,"Ġexplosives":6844,"ĠChechen":6845,"Ġpushing":6846,"Ġdismissed":6847,"\"\\":6848,"How":6849,"bar":6850,"bel":6851,"Ġfarm":6852,"Ġpact":6853,"ĠLo":6854,"akarta":6855,"ĠJam":6856,"oya":6857,"ĠAnton":6858,"ĠCommerce":6859,"airs":6860,"Ġcondition":6861,"Sharon":6862,"Ġcivilians":6863,"Ġconvicted":6864,"Ġfavour":6865,"ĠNigerian":6866,"Ġproperty":6867,"ĠVoIP":6868,"Ġsurprising":6869,"Ġrescue":6870,"Gold":6871,"pass":6872,"Ġsigning":6873,"ĠSold":6874,"Ġmos":6875,"ĠCurt":6876,"ĠPackers":6877,"irates":6878,"ĠNO":6879,"ĠStudy":6880,"ĠVI":6881,"Ġsecurities":6882,"ibbean":6883,"Ġ48":6884,"italia":6885,"Ġworker":6886,"Ġliqu":6887,"ĠMartha":6888,"eseason":6889,"ĠBarcelona":6890,"Ġpatients":6891,"Ġholy":6892,"Ġmulti":6893,"ĠAdvanced":6894,"ĠLebanon":6895,"Ġfranchise":6896,"pen":6897,"Ġera":6898,"ĠRay":6899,"ĠHD":6900,"cher":6901,"Ġshots":6902,"Ġrecogn":6903,"Ġcommunications":6904,"Ġdevelopers":6905,"ĠBuild":6906,"Ġpractices":6907,"ĠSettle":6908,"Ġmachine":6909,"ĠBobby":6910,"Ġlawyer":6911,"Ġconclud":6912,"Ġwashington":6913,"90":6914,"Se":6915,"SEC":6916,"esters":6917,"ĠPH":6918,"Ġconvention":6919,"ĠPlus":6920,"Ġinsisted":6921,"Ġinfring":6922,"Ġsolar":6923,"standing":6924,"embly":6925,"Ġwashingtonpost":6926,"CI":6927,"DNEY":6928,"General":6929,"PH":6930,"ĠSqu":6931,"endum":6932,"Ġimpress":6933,"ERS":6934,"Ġweight":6935,"Ġposts":6936,"ĠWarns":6937,"Ġdriven":6938,"MSFT":6939,"Ġgreater":6940,"ructure":6941,"ĠMalaysia":6942,"Neal":6943,"Sm":6944,"inters":6945,"rett":6946,"Ġhockey":6947,"ĠCos":6948,"ĠMah":6949,"ĠMiller":6950,"Ġrat":6951,"ĠGe":6952,"ĠHy":6953,"ector":6954,"ĠShare":6955,"ĠSpam":6956,"AND":6957,"Ġconserv":6958,"ĠBlock":6959,"AMA":6960,"Ġevac":6961,"ĠCounty":6962,"Ġlegislation":6963,"ĠSYDNEY":6964,"Am":6965,"bor":6966,"Ġsound":6967,"ĠSeek":6968,"ĠSBC":6969,"ĠTrial":6970,"ĠPast":6971,"ĠWon":6972,"ĠDaily":6973,"Ġheard":6974,"Ġopportunity":6975,"ashion":6976,"uresmo":6977,"ennan":6978,"iversal":6979,"ĠPeter":6980,"Ġsemiconductor":6981,"ĠStandard":6982,"300":6983,"mits":6984,"Ġshel":6985,"Ġbench":6986,"ĠAhead":6987,"Ġracing":6988,"cean":6989,"ĠKenn":6990,"Ġspyware":6991,"ensing":6992,"Ġstruggle":6993,"atcher":6994,"Ġadditional":6995,"shot":6996,"ĠUsers":6997,"45":6998,"IV":6999,"Qaida":7000,"ban":7001,"ground":7002,"Ġ)":7003,"ĠSears":7004,"ĠPil":7005,"ĠPistons":7006,"oline":7007,"Ġatomic":7008,"Ġprove":7009,"artner":7010,"Ġspring":7011,"Ġ76":7012,"Ġreceive":7013,"Ġsteady":7014,"ĠDelhi":7015,"Australian":7016,"Ġdozen":7017,"USSELS":7018,"Bo":7019,"TT":7020,"uros":7021,"Ġhour":7022,"ĠBOS":7023,"Ġnotebook":7024,"Ġgear":7025,"ĠWomen":7026,"Ġexam":7027,"acking":7028,"avez":7029,"ĠThanks":7030,"Ġenh":7031,"Ġcommittee":7032,"ĠIranian":7033,"ĠMcC":7034,"Ġmessaging":7035,"ĠArabia":7036,"Phil":7037,"ĠFields":7038,"ergus":7039,"Ġsplit":7040,"IAN":7041,"Judge":7042,"final":7043,"Ġbal":7044,"ayer":7045,"ĠCassini":7046,"Ġdeleg":7047,"ĠKmart":7048,"Ġaggress":7049,"Ġattract":7050,"ĠAirport":7051,"Ġrelie":7052,"Ġfellow":7053,"ĠSunni":7054,"Ġfigure":7055,"Ġcombat":7056,"French":7057,"Ġcorner":7058,"All":7059,"mens":7060,"ĠGas":7061,"ĠLyn":7062,"Ġconstruction":7063,"Ġdepart":7064,"Ġreleases":7065,"iamond":7066,"ĠAppl":7067,"iolence":7068,"ĠCaribbean":7069,"Ġbeta":7070,"ĠQuest":7071,"Ġmodels":7072,"Ġtaxes":7073,"ĠNetherlands":7074,"Ġgained":7075,"Ġbitter":7076,"Ġdangerous":7077,"Sup":7078,"Ver":7079,"itect":7080,"lee":7081,"ĠBBC":7082,"ĠNA":7083,"ĠNeed":7084,"ĠEven":7085,"ĠOv":7086,"Ġdeput":7087,"ovo":7088,"ashing":7089,"Ġaren":7090,"Ġpromises":7091,"Ġeverything":7092,"ĠDevices":7093,"ĠKyoto":7094,"ĠHOUS":7095,"Delta":7096,"zz":7097,"icated":7098,"omers":7099,"eled":7100,"ĠPad":7101,"otes":7102,"ĠStrong":7103,"Ġspread":7104,"antas":7105,"ĠMariners":7106,"utsche":7107,"ĠEdition":7108,"ĠSchw":7109,"Ġseemed":7110,"ĠWorkers":7111,"ĠBRUSSELS":7112,"Ġenvironmental":7113,"Ġresolve":7114,"Ġfighters":7115,"CD":7116,"qtada":7117,"Ġtied":7118,"Ġfather":7119,"Ġcease":7120,"ĠTri":7121,"omer":7122,"Ġstopped":7123,"ĠDan":7124,"Ġorganization":7125,"Ġairlines":7126,"Station":7127,"Ġprovided":7128,"Ġsells":7129,"armony":7130,"redit":7131,"Ġjoining":7132,"Ġpresent":7133,"Ġintroduce":7134,"Ġidentity":7135,"Ġfriends":7136,"Ġpledged":7137,"Ġsubscribers":7138,"Ġhousing":7139,"Ġbottom":7140,"rastructure":7141,"46":7142,"like":7143,"Ġmaster":7144,"Ġdi":7145,"omes":7146,"Ġlibr":7147,"uty":7148,"emens":7149,"iab":7150,"enda":7151,"ounces":7152,"ubs":7153,"Ġrecr":7154,"ĠPhoto":7155,"Ġmanaged":7156,"Ġfounder":7157,"Ġbeats":7158,"ĠOrd":7159,"This":7160,"Ġclimbed":7161,"Ġresignation":7162,"ĠMcLennan":7163,"ĠLibya":7164,"BO":7165,"Gu":7166,"hem":7167,"arr":7168,"Ġbre":7169,"ĠSEO":7170,"ĠJer":7171,"Ġvide":7172,"Ġarthritis":7173,"Ġregard":7174,"athan":7175,"Ġsuspension":7176,"Ġpassengers":7177,"Ġpolitic":7178,"Ġmarathon":7179,"ambod":7180,"Ġbenefit":7181,"Ġplayoffs":7182,"Ġconnection":7183,"erguson":7184,"oen":7185,"Ġtable":7186,"Ġsudden":7187,"Ġfrust":7188,"rell":7189,"ĠFoods":7190,"owa":7191,"ifying":7192,"ĠSpitzer":7193,"ĠArrest":7194,"Ġphys":7195,"Ġinjuries":7196,"eneg":7197,"Ġfaced":7198,"Ġbreaks":7199,"ĠFirm":7200,"Ġsky":7201,"Ġcarried":7202,"Ġapparent":7203,"CoMo":7204,"ĠLabour":7205,"Ġprepare":7206,"ĠHassan":7207,"Berry":7208,"Qaeda":7209,"Time":7210,"Ġsust":7211,"Ġsteroid":7212,"Ġcurb":7213,"aly":7214,"alyst":7215,"ĠCanc":7216,"ĠMad":7217,"ĠFerr":7218,"ipe":7219,"Ġproduce":7220,"Ġmilitia":7221,"Ġheadquarters":7222,"Ġshowdown":7223,"Ġknew":7224,"Ġthroughout":7225,"ATION":7226,"Ġrespond":7227,"ĠRyan":7228,"Ġexpanding":7229,"LAND":7230,"Ġdetermin":7231,"Ġstrengthen":7232,"oil":7233,"Ġfat":7234,"leans":7235,"ĠJakarta":7236,"Ġsharing":7237,"Ġslipped":7238,"Ġinvestor":7239,"ĠSerb":7240,"azaa":7241,"Ġstepped":7242,"Afghan":7243,"ĠRaises":7244,"Ġsemifinals":7245,"Ġenjoy":7246,"ua":7247,"ĠSadr":7248,"amo":7249,"irt":7250,"ĠFox":7251,"ĠHand":7252,"apter":7253,"ĠStaff":7254,"Ġaccident":7255,"Ġflags":7256,"Ġbigger":7257,"inking":7258,"Ġextrem":7259,"Ġnetworking":7260,"Ġpredicted":7261,"Ġclinch":7262,"ĠOfficials":7263,"ĠAntonio":7264,"ĠHOUSTON":7265,"Court":7266,"Pac":7267,"SU":7268,"Zarqawi":7269,"wich":7270,"Ġpenal":7271,"Ġpaper":7272,"idend":7273,"Ġnort":7274,"olid":7275,"Ġankle":7276,"ĠTheir":7277,"Ġalert":7278,"ĠPrince":7279,"ocket":7280,"ossible":7281,"Ġlawmakers":7282,"Ġanticipated":7283,"Ġanything":7284,"Ġminute":7285,"Ġchem":7286,"ĠBuff":7287,"Ġopponents":7288,"Ġcleared":7289,"Ġdominated":7290,"Ġpotentially":7291,"mohan":7292,"ĠCharges":7293,"ĠLonghorn":7294,"Ġjournalists":7295,".\\\\":7296,"can":7297,"def":7298,"around":7299,"Ġpion":7300,"ĠSalv":7301,"ĠCalls":7302,"Ġaccounts":7303,"Ġbacking":7304,"Ġdefend":7305,"Ġparticip":7306,"ĠFlat":7307,"Ġserve":7308,"ĠAdd":7309,"ĠOrleans":7310,"ĠEdwards":7311,"Ġsuggests":7312,"ĠTitans":7313,"Ġwatched":7314,"ĠMaryland":7315,"awaited":7316,"Ġdestroy":7317,"ĠColumbia":7318,"king":7319,"lor":7320,"arant":7321,"ĠSite":7322,"stra":7323,"ĠUEFA":7324,"ĠOb":7325,"Ġaside":7326,"Ġprojects":7327,"ounced":7328,"uccess":7329,"Ġ42":7330,"Ġhighly":7331,"Ġcouldn":7332,"Ġlargely":7333,"Ġmedals":7334,"Ġtriumph":7335,"umping":7336,"Ġstronghold":7337,"Ġcorruption":7338,"Cola":7339,"ĠBOSTON":7340,"SBC":7341,"Ġcore":7342,"ĠMarg":7343,"ĠBol":7344,"Ġgro":7345,"Ġoffices":7346,"urned":7347,"Ġearn":7348,"ĠEnv":7349,"ĠClin":7350,"Ġ198":7351,"ĠBrad":7352,"iffe":7353,"uggish":7354,"TAWA":7355,"Ġpitched":7356,"ĠAustria":7357,"Cons":7358,"den":7359,"dney":7360,"rated":7361,"ĠColl":7362,"ĠLine":7363,"ĠShort":7364,"ORTS":7365,"ĠArctic":7366,"Ġamount":7367,"ĠOper":7368,"Ġreduced":7369,"Ġcritics":7370,"Ġpleaded":7371,"Ġrejects":7372,"ĠMotorola":7373,"Ġchallenges":7374,"ĠUnveils":7375,"Ġceremony":7376,"FI":7377,"NFL":7378,"work":7379,"Ġporn":7380,"Ġmind":7381,"ili":7382,"omet":7383,"acement":7384,"Ġgran":7385,"ĠAdrian":7386,"arming":7387,"amilton":7388,"BAD":7389,"Ġconduct":7390,"Ġobtain":7391,"Ġlandmark":7392,"Ġrequire":7393,"Ġpresence":7394,"Ġqualifier":7395,"Ġwrites":7396,"Ġreforms":7397,"Ġpicture":7398,"Donald":7399,"ĠOTTAWA":7400,"Korea":7401,"Internet":7402,"54":7403,"eter":7404,"fall":7405,"Ġir":7406,"Ġcases":7407,"level":7408,"ĠTool":7409,"ĠFar":7410,"ĠRoll":7411,"Ġproceed":7412,"Ġcompens":7413,"izards":7414,"grade":7415,"Ġcannot":7416,"ĠForest":7417,"ĠPhill":7418,"Ġsuspect":7419,"Ġexplo":7420,"cliffe":7421,"Ġvisiting":7422,"Ġholes":7423,"ĠGarc":7424,"ĠEmbassy":7425,"Brief":7426,"rone":7427,"tops":7428,"tech":7429,"Ġign":7430,"ittle":7431,"ateway":7432,"Ġbrawl":7433,"Ġdaily":7434,"ĠPublic":7435,"Ġem":7436,"ĠRw":7437,"ĠRules":7438,"through":7439,"ulate":7440,"anson":7441,"aching":7442,"Ġads":7443,"Ġorbit":7444,"Ġ55":7445,"ĠClose":7446,"Ġhitting":7447,"Ġproduced":7448,"ĠXbox":7449,"Ġsuccessor":7450,"ĠSharapova":7451,"Ġreaching":7452,"Ġkidnappers":7453,"Ġsuffering":7454,"Ġinsurgent":7455,"ĠRockets":7456,"ĠMyan":7457,"ĠGenesis":7458,"ĠOsama":7459,"ĠBattle":7460,"ĠForecast":7461,"employment":7462,"28":7463,"FID":7464,"Nov":7465,"TH":7466,"Top":7467,"eet":7468,"uing":7469,"ĠStern":7470,"Ġdig":7471,"leet":7472,"ĠMut":7473,"ĠMany":7474,"ĠBan":7475,"ĠBrowns":7476,"ĠDC":7477,"ĠJoin":7478,"Ġsav":7479,"aste":7480,"umacher":7481,"Ġagents":7482,"uces":7483,"Ġexpert":7484,"ĠAnth":7485,"ĠProv":7486,"ahawks":7487,"Ġweaker":7488,"Ġbids":7489,"ĠScience":7490,"Ġcentre":7491,"Ġclosely":7492,"EST":7493,"Ġeasier":7494,"Ġmeasure":7495,"ĠHostage":7496,"ĠCitigroup":7497,"azeera":7498,"Ġassistant":7499,"piracy":7500,"Ġcart":7501,"ĠSocial":7502,"Ġmus":7503,"Ġmarg":7504,"teries":7505,"ĠMour":7506,"ĠWenger":7507,"ĠFace":7508,"ĠTheft":7509,"ocal":7510,"Ġoverhaul":7511,"onda":7512,"urred":7513,"Ġanyone":7514,"Ġjoins":7515,"Ġpossibility":7516,"ĠSydney":7517,"Ġeveryone":7518,"ILLE":7519,"ĠMuslims":7520,"ĠTravel":7521,"ĠMosul":7522,"ĠHelens":7523,"missions":7524,"ycos":7525,"Ġcameras":7526,"Ġsilver":7527,"Ġresponsible":7528,"Ġvirtual":7529,"ĠMyanmar":7530,"DP":7531,"nel":7532,"woman":7533,"zech":7534,"Ġesp":7535,"Ġfate":7536,"alem":7537,"Ġbull":7538,"Ġmil":7539,"ĠFind":7540,"ĠJP":7541,"inea":7542,"Ġspin":7543,"ample":7544,"active":7545,"ĠIndians":7546,"lando":7547,"arsh":7548,"Ġagrees":7549,"Ġlarger":7550,"Ġimplement":7551,"ikes":7552,"ucky":7553,"ĠMotion":7554,"ĠPlayStation":7555,"ĠSym":7556,"ĠEls":7557,"Ġsuggested":7558,"France":7559,"Ġillegally":7560,"Ġhappy":7561,"Ġdelivered":7562,"Ġinventories":7563,"ecially":7564,"umsfeld":7565,"Ġdescribed":7566,"Ġcitizens":7567,"Ed":7568,"tion":7569,"Ġhur":7570,"stone":7571,"acco":7572,"Ġep":7573,"ĠOpp":7574,"ĠKodak":7575,"icken":7576,"Ġ36":7577,"Ġblamed":7578,"azz":7579,"Ġpaying":7580,"Ġmanufacturers":7581,"inho":7582,"ĠDELHI":7583,"SS":7584,"Sw":7585,"life":7586,"ss":7587,"atively":7588,"isner":7589,"aying":7590,"Ġdoping":7591,"olves":7592,"ĠDet":7593,"ĠDick":7594,"ĠEff":7595,"rif":7596,"Ġworry":7597,"ĠVodafone":7598,"Ġ2007":7599,"Ġ2008":7600,"Ġperhaps":7601,"Ġfined":7602,"away":7603,"Ġimpl":7604,"Ġ600":7605,"UST":7606,"ĠApprov":7607,"remlin":7608,"Ġmodest":7609,"ĠCharley":7610,"Ġexpanded":7611,"Ġspammers":7612,"Ġoverseas":7613,"Ġurges":7614,"Ġanswer":7615,"Ġhelicopter":7616,"Ital":7617,"giving":7618,"ivery":7619,"lon":7620,"mon":7621,"Ġ/":7622,"Ġsiege":7623,"Ġousted":7624,"reck":7625,"Ġbreat":7626,"Ġlinks":7627,"Ġgraphics":7628,"ĠFut":7629,"ĠESP":7630,"abled":7631,"ective":7632,"Ġdisrupt":7633,"Ġworlds":7634,"ĠRef":7635,"Ġproviding":7636,"Ġinfrastructure":7637,"ĠAndrew":7638,"Ġfollow":7639,"Ġversions":7640,"ĠEdge":7641,"ĠElectric":7642,"Ġcausing":7643,"Three":7644,"etrole":7645,"Ġentry":7646,"Ġemerging":7647,"Ġcollabor":7648,"Ġrolled":7649,"ĠTitle":7650,"Ġsurface":7651,"sunami":7652,"best":7653,"hill":7654,"eder":7655,"ĠCross":7656,"ĠFoll":7657,"imming":7658,"ĠGAZ":7659,"ĠHuman":7660,"ĠLas":7661,"Ġackn":7662,"Ġintens":7663,"Ġearned":7664,"Ġreturning":7665,"Ġ66":7666,"ĠSea":7667,"Ġlowest":7668,"Ġtalking":7669,"Ġcouple":7670,"Ġsuccessfully":7671,"Ġflying":7672,"Ġfeared":7673,"Ġcommissioner":7674,"Ġranking":7675,"ĠIllinois":7676,"ĠNepal":7677,"GB":7678,"Networks":7679,"Val":7680,"burn":7681,"oard":7682,"vic":7683,"Ġet":7684,"Ġcyc":7685,"Ġpowers":7686,"ĠCat":7687,"ache":7688,"ĠWood":7689,"ĠWants":7690,"Ġ150":7691,"Ġseat":7692,"fford":7693,"Ġsecretary":7694,"Ġdemanding":7695,"egas":7696,"Ġestimated":7697,"Ġdiplomats":7698,"Ġdepartment":7699,"European":7700,"Crude":7701,"ĠESPN":7702,"99":7703,"Su":7704,"dem":7705,"ien":7706,"Ġtre":7707,"inated":7708,"Ġinaug":7709,"Ġnorm":7710,"ĠFal":7711,"ortium":7712,"Ġremember":7713,"ĠMarlins":7714,"minute":7715,"Ġtitles":7716,"Ġexperim":7717,"Ġsubsidiary":7718,"Ġensure":7719,"Ġdeputy":7720,"etroleum":7721,"Ġacknowled":7722,"'ve":7723,"AY":7724,"El":7725,"OC":7726,"hour":7727,"ln":7728,"nie":7729,"stroke":7730,"stein":7731,"ĠPfizer":7732,"ĠBasketball":7733,"Ġlove":7734,"ĠWell":7735,"ĠWater":7736,"ĠYears":7737,"Ġjailed":7738,"ĠShan":7739,"Ġplants":7740,"ĠItanium":7741,"Ġhelps":7742,"Ġbrother":7743,"Ġprogramme":7744,"ATTLE":7745,"ĠOrlando":7746,"ĠPartners":7747,"Ġpositions":7748,"Ġaffect":7749,"ĠSilicon":7750,"ĠNortel":7751,"Ġterritory":7752,"ymnastics":7753,"ĠVIEN":7754,"ĠGAZA":7755,"LD":7756,"cott":7757,"making":7758,"itches":7759,"ĠSince":7760,"Ġhike":7761,"Ġdark":7762,"ĠCrit":7763,"ĠCRM":7764,"ĠCowboys":7765,"ĠGains":7766,"ĠHere":7767,"icking":7768,"enson":7769,"Ġcru":7770,"Ġstring":7771,"ANG":7772,"Ġrecording":7773,"ĠConvention":7774,"Ġtargeting":7775,"ippi":7776,"Ġroundup":7777,"Ġdrivers":7778,"Ġdistribution":7779,"ĠEconomy":7780,"Ġrelationship":7781,"ĠSweden":7782,"Fire":7783,"Ins":7784,"billion":7785,"card":7786,"ĠMult":7787,"ĠMoon":7788,"Ġgam":7789,"Ġeuros":7790,"ĠFav":7791,"ĠRaf":7792,"ĠDNA":7793,"umber":7794,"Ġcomplex":7795,"ologists":7796,"Ġcapsule":7797,"ĠMaria":7798,"ĠAgassi":7799,"ĠAbd":7800,"ĠCricket":7801,"Ġinstit":7802,"Ġoutsourcing":7803,"Palm":7804,"ography":7805,"ĠNetscape":7806,"Ġfavorite":7807,"Ġlockout":7808,"Ġreferendum":7809,"avaliers":7810,"ĠHollinger":7811,"53":7812,"LIN":7813,"MT":7814,"Mon":7815,"VILLE":7816,"core":7817,"nya":7818,"sized":7819,"Ġtim":7820,"Ġhired":7821,"adow":7822,"olen":7823,"ĠFile":7824,"Ġstands":7825,"chnya":7826,"ĠStra":7827,"Ġexec":7828,"Ġwilling":7829,"ĠVs":7830,"arket":7831,"Ġdispl":7832,"cedented":7833,"Ġwarnings":7834,"Ġmonthly":7835,"ĠAlthough":7836,"ĠCompanies":7837,"ĠATLAN":7838,"Ġfollowed":7839,"ĠGuinea":7840,"ĠAmid":7841,"ĠChampionships":7842,"escope":7843,"ĠPeru":7844,"Ġwatching":7845,"ĠSmart":7846,"ĠEnds":7847,"Britain":7848,"ĠSolaris":7849,"Ġastronauts":7850,"precedented":7851,"ĠAnthony":7852,"48":7853,"High":7854,"Olymp":7855,"Putin":7856,"na":7857,"western":7858,"ĠSell":7859,"ĠTen":7860,"ĠBes":7861,"ĠBuc":7862,"ĠEmp":7863,"ĠInstitute":7864,"Ġexact":7865,"Ġscreens":7866,"Ġadj":7867,"Ġtargeted":7868,"Ġrebound":7869,"Ġmeetings":7870,"Ġformally":7871,"ĠParliament":7872,"Ġdownloads":7873,"Ġstruggled":7874,"Ġheavyweight":7875,"ĠProtocol":7876,"dom":7877,"fol":7878,"no":7879,"race":7880,"Ġpole":7881,"icut":7882,"ĠPict":7883,"astic":7884,"Ġprim":7885,"abe":7886,"ipse":7887,"ĠVa":7888,"Ġclient":7889,"portation":7890,"Ġaccusing":7891,"Ġofferings":7892,"Ġoperators":7893,"ĠManmohan":7894,"ĠSupply":7895,"ĠEarly":7896,"ITED":7897,"umbled":7898,"ĠHarry":7899,"Ġbusy":7900,"ĠUrges":7901,"ĠSemiconductor":7902,"ĠCeltic":7903,"Ġparticular":7904,"Ġmosque":7905,"'ll":7906,"23":7907,"AH":7908,"LAMA":7909,"PR":7910,"cle":7911,"ohn":7912,"Ġcult":7913,"ĠToyota":7914,"ĠCBC":7915,"vement":7916,"Ġcompared":7917,"ĠChavez":7918,"odd":7919,"Ġappointed":7920,"oints":7921,"Ġdoor":7922,"Ġcurrently":7923,"ĠJustin":7924,"ĠSPORTS":7925,"ĠBlackBerry":7926,"Ġsupplier":7927,"Ġlimited":7928,"Ġaccepted":7929,"ĠColombia":7930,"LAMABAD":7931,"43":7932,"Bank":7933,"Sec":7934,"Tur":7935,"Yankees":7936,"ka":7937,"vard":7938,"inoc":7939,"Ġcabinet":7940,"Ġpan":7941,"ishes":7942,"Ġhunt":7943,"ĠTay":7944,"ĠMat":7945,"ĠMeg":7946,"ĠRace":7947,"Ġrich":7948,"ĠDistrict":7949,"ĠLinks":7950,"Ġasks":7951,"emale":7952,"usts":7953,"Ġelectric":7954,"inson":7955,"Ġ78":7956,"ĠBlast":7957,"Ġshoulder":7958,"aska":7959,"Ġtransfer":7960,"Ġmembership":7961,"ĠTrafford":7962,"Ġgunmen":7963,"Ġshareholder":7964,"ĠISLAMABAD":7965,"ĠStephen":7966,"Ear":7967,"cut":7968,"ga":7969,"gs":7970,"Ġ39":7971,"ĠCoca":7972,"eless":7973,"ĠFerguson":7974,"ĠEri":7975,"Ġpreseason":7976,"Ġworried":7977,"ĠAsk":7978,"Ġphoto":7979,"Ġmostly":7980,"ĠFlight":7981,"ĠCommun":7982,"ĠAdobe":7983,"Ġincluded":7984,"ĠOffic":7985,"offs":7986,"urgents":7987,"ĠControl":7988,"ĠWeigh":7989,"Canada":7990,"market":7991,"ĠHenman":7992,"ĠTelecom":7993,"What":7994,"vania":7995,"Ġupdates":7996,"ĠMargaret":7997,"MB":7998,"Mobile":7999}